{
  "version": "1.0",
  "truncation": null,
  "padding": null,
  "added_tokens": [
    {
      "id": 0,
      "content": "<unk>",
      "single_word": false,
      "lstrip": false,
      "rstrip": false,
      "normalized": false,
      "special": true
    },
    {
      "id": 1,
      "content": "<s>",
      "single_word": false,
      "lstrip": false,
      "rstrip": false,
      "normalized": false,
      "special": true
    },
    {
      "id": 2,
      "content": "</s>",
      "single_word": false,
      "lstrip": false,
      "rstrip": false,
      "normalized": false,
      "special": true
    }
  ],
  "normalizer": {
    "type": "Sequence",
    "normalizers": [
      {
        "type": "Prepend",
        "prepend": "▁"
      },
      {
        "type": "Replace",
        "pattern": {
          "String": " "
        },
        "content": "▁"
      }
    ]
  },
  "pre_tokenizer": null,
  "post_processor": {
    "type": "TemplateProcessing",
    "single": [
      {
        "SpecialToken": {
          "id": "<s>",
          "type_id": 0
        }
      },
      {
        "Sequence": {
          "id": "A",
          "type_id": 0
        }
      }
    ],
    "pair": [
      {
        "SpecialToken": {
          "id": "<s>",
          "type_id": 0
        }
      },
      {
        "Sequence": {
          "id": "A",
          "type_id": 0
        }
      },
      {
        "SpecialToken": {
          "id": "<s>",
          "type_id": 1
        }
      },
      {
        "Sequence": {
          "id": "B",
          "type_id": 1
        }
      }
    ],
    "special_tokens": {
      "<s>": {
        "id": "<s>",
        "ids": [
          1
        ],
        "tokens": [
          "<s>"
        ]
      }
    }
  },
  "decoder": {
    "type": "Sequence",
    "decoders": [
      {
        "type": "Replace",
        "pattern": {
          "String": "▁"
        },
        "content": " "
      },
      {
        "type": "ByteFallback"
      },
      {
        "type": "Fuse"
      },
      {
        "type": "Strip",
        "content": " ",
        "start": 1,
        "stop": 0
      }
    ]
  },
  "model": {
    "type": "Unigram",
    "unk_id": 0,
    "vocab": [
      [
        "<unk>",
        0.0
      ],
      [
        "<s>",
        0.0
      ],
      [
        "</s>",
        0.0
      ],
      [
        ".",
        -3.0306692123413086
      ],
      [
        ",",
        -3.7525947093963623
      ],
      [
        "▁आहे",
        -4.447231769561768
      ],
      [
        "▁",
        -4.720265865325928
      ],
      [
        "▁आणि",
        -4.818077564239502
      ],
      [
        "▁या",
        -5.141331195831299
      ],
      [
        "च",
        -5.228262424468994
      ],
      [
        "-",
        -5.385125160217285
      ],
      [
        ")",
        -5.392714977264404
      ],
      [
        "च्या",
        -5.412299156188965
      ],
      [
        "▁(",
        -5.431327819824219
      ],
      [
        "...",
        -5.456182956695557
      ],
      [
        "त",
        -5.461396217346191
      ],
      [
        "ला",
        -5.513570785522461
      ],
      [
        "▁नाही",
        -5.559401988983154
      ],
      [
        "▁हे",
        -5.628653526306152
      ],
      [
        "चे",
        -5.644086837768555
      ],
      [
        "▁व",
        -5.656849384307861
      ],
      [
        "▁-",
        -5.743372440338135
      ],
      [
        "चा",
        -5.7458062171936035
      ],
      [
        "ची",
        -5.754998207092285
      ],
      [
        "▁ते",
        -5.776273250579834
      ],
      [
        "ी",
        -5.799569129943848
      ],
      [
        "ा",
        -5.8291168212890625
      ],
      [
        "ही",
        -5.836266994476318
      ],
      [
        "▁एक",
        -5.868499279022217
      ],
      [
        "▁तर",
        -5.875330448150635
      ],
      [
        "▁आहेत",
        -5.897607803344727
      ],
      [
        ":",
        -5.909881591796875
      ],
      [
        "▁:",
        -5.945074558258057
      ],
      [
        "?",
        -5.973822116851807
      ],
      [
        "े",
        -5.998770236968994
      ],
      [
        "स",
        -6.020739555358887
      ],
      [
        "’",
        -6.034841060638428
      ],
      [
        "'",
        -6.044149398803711
      ],
      [
        "▁हा",
        -6.085112571716309
      ],
      [
        "▁‘",
        -6.087921142578125
      ],
      [
        "ने",
        -6.10127592086792
      ],
      [
        "▁पण",
        -6.146616458892822
      ],
      [
        "▁'",
        -6.152287006378174
      ],
      [
        "ं",
        -6.164601802825928
      ],
      [
        "▁मी",
        -6.165440082550049
      ],
      [
        "ात",
        -6.211914539337158
      ],
      [
        "▁करा",
        -6.2473602294921875
      ],
      [
        "▁होते",
        -6.258727550506592
      ],
      [
        "▁काही",
        -6.265621185302734
      ],
      [
        "वर",
        -6.276987552642822
      ],
      [
        "▁का",
        -6.322709560394287
      ],
      [
        "▁असे",
        -6.335540294647217
      ],
      [
        "!",
        -6.351572513580322
      ],
      [
        "▁ही",
        -6.382047653198242
      ],
      [
        "न",
        -6.418180465698242
      ],
      [
        "मध्ये",
        -6.437469959259033
      ],
      [
        "र",
        -6.445491790771484
      ],
      [
        "▁काय",
        -6.450753211975098
      ],
      [
        "▁\"",
        -6.457420825958252
      ],
      [
        "▁त्या",
        -6.471423149108887
      ],
      [
        "क",
        -6.480337142944336
      ],
      [
        "▁यांनी",
        -6.492210388183594
      ],
      [
        "ाच्या",
        -6.497385025024414
      ],
      [
        "▁की",
        -6.519362926483154
      ],
      [
        "ल",
        -6.524941444396973
      ],
      [
        "ाची",
        -6.5447564125061035
      ],
      [
        "▁केली",
        -6.599613666534424
      ],
      [
        "ता",
        -6.622479438781738
      ],
      [
        "▁तो",
        -6.623479843139648
      ],
      [
        "ाचा",
        -6.638546466827393
      ],
      [
        "▁मला",
        -6.645537376403809
      ],
      [
        "▁आता",
        -6.646330833435059
      ],
      [
        "ाचे",
        -6.6514763832092285
      ],
      [
        "▁केले",
        -6.659039497375488
      ],
      [
        "▁मराठी",
        -6.66090726852417
      ],
      [
        "▁आपल्या",
        -6.667017936706543
      ],
      [
        "ली",
        -6.681254863739014
      ],
      [
        "▁आपण",
        -6.692697048187256
      ],
      [
        "▁सर्व",
        -6.7021260261535645
      ],
      [
        "▁करून",
        -6.717008113861084
      ],
      [
        "ून",
        -6.728469371795654
      ],
      [
        "ले",
        -6.73069429397583
      ],
      [
        "▁म्हणून",
        -6.744810581207275
      ],
      [
        "▁महाराष्ट्र",
        -6.75106143951416
      ],
      [
        "य",
        -6.762805938720703
      ],
      [
        "ाला",
        -6.776054382324219
      ],
      [
        "/",
        -6.776618957519531
      ],
      [
        "म",
        -6.784536838531494
      ],
      [
        "▁केला",
        -6.81135892868042
      ],
      [
        "▁होता",
        -6.816647052764893
      ],
      [
        "▁#",
        -6.826197624206543
      ],
      [
        "ाने",
        -6.829233169555664
      ],
      [
        "▁करण्यात",
        -6.830141544342041
      ],
      [
        "▁होती",
        -6.859541893005371
      ],
      [
        "▁न",
        -6.859560966491699
      ],
      [
        "▁ती",
        -6.883033275604248
      ],
      [
        "साठी",
        -6.899881839752197
      ],
      [
        "▁म्हणजे",
        -6.911302089691162
      ],
      [
        "▁_",
        -6.918705463409424
      ],
      [
        "▁माहिती",
        -6.92870569229126
      ],
      [
        "▁एका",
        -6.961373805999756
      ],
      [
        "▁आले",
        -6.965869903564453
      ],
      [
        "▁–",
        -6.988940715789795
      ],
      [
        "▁झाले",
        -6.993968963623047
      ],
      [
        "ांना",
        -7.013843536376953
      ],
      [
        "▁आज",
        -7.018777370452881
      ],
      [
        "▁मध्ये",
        -7.030976295471191
      ],
      [
        "▁किंवा",
        -7.033944129943848
      ],
      [
        "▁तरी",
        -7.059595108032227
      ],
      [
        "▁झाली",
        -7.062486171722412
      ],
      [
        "▁अशी",
        -7.070206642150879
      ],
      [
        "ड",
        -7.071539402008057
      ],
      [
        "▁येथे",
        -7.081438064575195
      ],
      [
        "ांच्या",
        -7.085264205932617
      ],
      [
        "▁इतर",
        -7.085306167602539
      ],
      [
        "▁अ",
        -7.087878704071045
      ],
      [
        "▁दोन",
        -7.1008076667785645
      ],
      [
        "▁झाला",
        -7.1031575202941895
      ],
      [
        "▁१",
        -7.110802173614502
      ],
      [
        "▁डॉ",
        -7.115358352661133
      ],
      [
        "▁काम",
        -7.115841865539551
      ],
      [
        "▁!",
        -7.118104934692383
      ],
      [
        "ावर",
        -7.12689208984375
      ],
      [
        "▁अनेक",
        -7.140908241271973
      ],
      [
        "▁यांच्या",
        -7.145440578460693
      ],
      [
        "या",
        -7.151183605194092
      ],
      [
        "▁त्यामुळे",
        -7.153398036956787
      ],
      [
        "▁मुंबई",
        -7.153988838195801
      ],
      [
        "▁मात्र",
        -7.15510368347168
      ],
      [
        "▁असा",
        -7.164473056793213
      ],
      [
        "▁आली",
        -7.167286396026611
      ],
      [
        "प",
        -7.1787848472595215
      ],
      [
        "▁असून",
        -7.181429386138916
      ],
      [
        "ू",
        -7.184118270874023
      ],
      [
        "ांची",
        -7.186718940734863
      ],
      [
        "\"",
        -7.188299655914307
      ],
      [
        "्स",
        -7.195999622344971
      ],
      [
        "ना",
        -7.197083473205566
      ],
      [
        ";",
        -7.2105278968811035
      ],
      [
        "▁...",
        -7.211721420288086
      ],
      [
        "ज",
        -7.215463638305664
      ],
      [
        "▁विचार",
        -7.217188358306885
      ],
      [
        "▁असेल",
        -7.222121238708496
      ],
      [
        "ांनी",
        -7.228043079376221
      ],
      [
        "▁पुणे",
        -7.240426063537598
      ],
      [
        "▁करू",
        -7.240861415863037
      ],
      [
        "_",
        -7.244136333465576
      ],
      [
        "▁त्यांनी",
        -7.244865417480469
      ],
      [
        "▁माझ्या",
        -7.257009029388428
      ],
      [
        "▁होत",
        -7.258604526519775
      ],
      [
        "▁अशा",
        -7.259739875793457
      ],
      [
        "▁,",
        -7.260733127593994
      ],
      [
        "▁बातम्या",
        -7.2716569900512695
      ],
      [
        "▁सुरू",
        -7.276986122131348
      ],
      [
        "▁उत्तर",
        -7.278087139129639
      ],
      [
        "▁आला",
        -7.278891563415527
      ],
      [
        "▁त्यांच्या",
        -7.280710697174072
      ],
      [
        "▁कमी",
        -7.2926506996154785
      ],
      [
        "▁वर",
        -7.294605731964111
      ],
      [
        "▁तुम्ही",
        -7.303839683532715
      ],
      [
        "▁असते",
        -7.307686805725098
      ],
      [
        "ट",
        -7.3129682540893555
      ],
      [
        "▁करत",
        -7.315578937530518
      ],
      [
        "▁त्यांना",
        -7.3243889808654785
      ],
      [
        "व",
        -7.328316688537598
      ],
      [
        "▁.",
        -7.328630447387695
      ],
      [
        "▁मग",
        -7.331062316894531
      ],
      [
        "▁“",
        -7.344760417938232
      ],
      [
        "▁ना",
        -7.362687110900879
      ],
      [
        "▁२",
        -7.362714767456055
      ],
      [
        "▁?",
        -7.367986679077148
      ],
      [
        "s",
        -7.377570629119873
      ],
      [
        "ांचे",
        -7.378564357757568
      ],
      [
        "तील",
        -7.379498481750488
      ],
      [
        "▁बदल",
        -7.382940769195557
      ],
      [
        "ांचा",
        -7.387945652008057
      ],
      [
        "▁दिवस",
        -7.391238689422607
      ],
      [
        "ासाठी",
        -7.396758556365967
      ],
      [
        "▁आम्ही",
        -7.407323837280273
      ],
      [
        "्",
        -7.410340785980225
      ],
      [
        "▁ह्या",
        -7.4113945960998535
      ],
      [
        "▁अधिक",
        -7.414618015289307
      ],
      [
        "▁तसेच",
        -7.418181419372559
      ],
      [
        "शी",
        -7.428766250610352
      ],
      [
        "ल्या",
        -7.429725170135498
      ],
      [
        "कर",
        -7.442471027374268
      ],
      [
        "▁जे",
        -7.444994926452637
      ],
      [
        "ण",
        -7.449431419372559
      ],
      [
        "▁च्या",
        -7.450818061828613
      ],
      [
        "चं",
        -7.451591491699219
      ],
      [
        "वा",
        -7.452670097351074
      ],
      [
        "ातील",
        -7.454959392547607
      ],
      [
        "▁स",
        -7.4620280265808105
      ],
      [
        "▁भारतीय",
        -7.46620512008667
      ],
      [
        "▁*",
        -7.490959167480469
      ],
      [
        "ब",
        -7.5113325119018555
      ],
      [
        "णे",
        -7.5138421058654785
      ],
      [
        "▁असलेल्या",
        -7.520952224731445
      ],
      [
        "▁शब्द",
        -7.524834632873535
      ],
      [
        "▁श्री",
        -7.527933120727539
      ],
      [
        "▁येत",
        -7.530169486999512
      ],
      [
        "▁येथील",
        -7.5308146476745605
      ],
      [
        "ंना",
        -7.5320892333984375
      ],
      [
        "▁कारण",
        -7.534707546234131
      ],
      [
        "▁जिल्हा",
        -7.535689830780029
      ],
      [
        "▁त्याला",
        -7.53587007522583
      ],
      [
        "▁असं",
        -7.536893367767334
      ],
      [
        "▁राज्य",
        -7.542105674743652
      ],
      [
        "▁करण्यासाठी",
        -7.546886444091797
      ],
      [
        "▁नवीन",
        -7.548864841461182
      ],
      [
        "▁खूप",
        -7.553194522857666
      ],
      [
        "ते",
        -7.563317775726318
      ],
      [
        "▁करणे",
        -7.56835412979126
      ],
      [
        "▁भाग",
        -7.574387073516846
      ],
      [
        "▁प्रश्न",
        -7.580743312835693
      ],
      [
        "द",
        -7.600739002227783
      ],
      [
        "▁आ",
        -7.603188514709473
      ],
      [
        "▁आमच्या",
        -7.603936672210693
      ],
      [
        "लं",
        -7.604176044464111
      ],
      [
        "▁नाव",
        -7.618209362030029
      ],
      [
        "▁लेख",
        -7.618319988250732
      ],
      [
        "▁तयार",
        -7.619731903076172
      ],
      [
        "▁2018",
        -7.627763748168945
      ],
      [
        "▁पुन्हा",
        -7.631292819976807
      ],
      [
        "▁प्रयत्न",
        -7.638968467712402
      ],
      [
        "▁इ",
        -7.639148235321045
      ],
      [
        "▁होणार",
        -7.647392272949219
      ],
      [
        "▁दिली",
        -7.654337406158447
      ],
      [
        "▁हजार",
        -7.6667160987854
      ],
      [
        "▁लोक",
        -7.666740894317627
      ],
      [
        "▁३",
        -7.6687703132629395
      ],
      [
        "सकाळ",
        -7.6784257888793945
      ],
      [
        "ंच्या",
        -7.6797590255737305
      ],
      [
        "▁जात",
        -7.681594371795654
      ],
      [
        "▁वेळ",
        -7.6861114501953125
      ],
      [
        "▁/",
        -7.690788269042969
      ],
      [
        "▁जास्त",
        -7.693300724029541
      ],
      [
        "रा",
        -7.699481964111328
      ],
      [
        "▁घेऊन",
        -7.699705123901367
      ],
      [
        "▁तेव्हा",
        -7.703476905822754
      ],
      [
        "ळ",
        -7.705713272094727
      ],
      [
        "डी",
        -7.715250015258789
      ],
      [
        "री",
        -7.716030597686768
      ],
      [
        "का",
        -7.718662738800049
      ],
      [
        "▁कधी",
        -7.720896244049072
      ],
      [
        "ंची",
        -7.721591949462891
      ],
      [
        "▁पूर्ण",
        -7.721760272979736
      ],
      [
        "▁त्याच्या",
        -7.723104953765869
      ],
      [
        "▁उपलब्ध",
        -7.724787712097168
      ],
      [
        "▁होतो",
        -7.725188255310059
      ],
      [
        "▁पाणी",
        -7.7270731925964355
      ],
      [
        "▁फक्त",
        -7.727816104888916
      ],
      [
        "▁शकता",
        -7.745859622955322
      ],
      [
        "▁भारत",
        -7.7515950202941895
      ],
      [
        "ग",
        -7.753138065338135
      ],
      [
        "▁आर्थिक",
        -7.764397144317627
      ],
      [
        "▁नाहीत",
        -7.765150547027588
      ],
      [
        "ि",
        -7.7652506828308105
      ],
      [
        "▁तुमच्या",
        -7.7691874504089355
      ],
      [
        "▁तुम्हाला",
        -7.770758152008057
      ],
      [
        "▁विविध",
        -7.773077487945557
      ],
      [
        "कडे",
        -7.782363414764404
      ],
      [
        "▁तीन",
        -7.783138751983643
      ],
      [
        "ंचा",
        -7.785740852355957
      ],
      [
        "▁प्रत्येक",
        -7.790853977203369
      ],
      [
        "नी",
        -7.791435718536377
      ],
      [
        "▁असतात",
        -7.793594837188721
      ],
      [
        "▁व्हा",
        -7.797337532043457
      ],
      [
        "▁निर्णय",
        -7.797422409057617
      ],
      [
        "▁होईल",
        -7.797464370727539
      ],
      [
        "िंग",
        -7.802164077758789
      ],
      [
        "ो",
        -7.80315637588501
      ],
      [
        "▁यांना",
        -7.803805828094482
      ],
      [
        "▁उपक्रम",
        -7.80592155456543
      ],
      [
        "▁असतो",
        -7.820730209350586
      ],
      [
        "▁तू",
        -7.830480575561523
      ],
      [
        "▁वापर",
        -7.834601402282715
      ],
      [
        "ु",
        -7.835864067077637
      ],
      [
        "श",
        -7.836665153503418
      ],
      [
        "▁पुढे",
        -7.8398871421813965
      ],
      [
        "सा",
        -7.842117786407471
      ],
      [
        "ती",
        -7.8447957038879395
      ],
      [
        "▁चित्रपट",
        -7.846824645996094
      ],
      [
        "▁बंद",
        -7.85098934173584
      ],
      [
        "मुळे",
        -7.852390289306641
      ],
      [
        "▁प",
        -7.853788375854492
      ],
      [
        "तो",
        -7.8547492027282715
      ],
      [
        "पासून",
        -7.857455730438232
      ],
      [
        "▁मुख्य",
        -7.8577680587768555
      ],
      [
        "▁गोष्टी",
        -7.860631465911865
      ],
      [
        "▁म",
        -7.862356662750244
      ],
      [
        "ित",
        -7.866022109985352
      ],
      [
        "▁लाख",
        -7.868361473083496
      ],
      [
        "मधील",
        -7.8796868324279785
      ],
      [
        "रे",
        -7.882709503173828
      ],
      [
        "ंनी",
        -7.889805793762207
      ],
      [
        "▁जाते",
        -7.8936262130737305
      ],
      [
        "▁अन्य",
        -7.894016742706299
      ],
      [
        "▁त्यात",
        -7.8957624435424805
      ],
      [
        "ातून",
        -7.89789342880249
      ],
      [
        "▁कि",
        -7.899537563323975
      ],
      [
        "▁जाऊन",
        -7.900302886962891
      ],
      [
        "▁वा",
        -7.900637149810791
      ],
      [
        "▁झालेल्या",
        -7.901175022125244
      ],
      [
        "ीत",
        -7.9085869789123535
      ],
      [
        "ंचे",
        -7.910040855407715
      ],
      [
        "▁॥",
        -7.910257816314697
      ],
      [
        "▁ला",
        -7.91107702255249
      ],
      [
        "▁येणार",
        -7.911235809326172
      ],
      [
        "मा",
        -7.912360191345215
      ],
      [
        "▁दिले",
        -7.915395259857178
      ],
      [
        "▁४",
        -7.91726016998291
      ],
      [
        "▁क",
        -7.917535781860352
      ],
      [
        "▁येईल",
        -7.919489860534668
      ],
      [
        "▁गेल्या",
        -7.925934791564941
      ],
      [
        "▁हवे",
        -7.926000595092773
      ],
      [
        "▁करता",
        -7.927198886871338
      ],
      [
        "▁सध्या",
        -7.927801609039307
      ],
      [
        "▁कविता",
        -7.929751396179199
      ],
      [
        "▁नि",
        -7.929967403411865
      ],
      [
        "▁वि",
        -7.934974670410156
      ],
      [
        "▁ताज्या",
        -7.936291694641113
      ],
      [
        "▁किती",
        -7.937102317810059
      ],
      [
        "▁आपले",
        -7.93825626373291
      ],
      [
        "▁रोजी",
        -7.9386677742004395
      ],
      [
        "▁५",
        -7.9406561851501465
      ],
      [
        "▁होतं",
        -7.9429850578308105
      ],
      [
        "▁पश्चिम",
        -7.944615364074707
      ],
      [
        "मी",
        -7.948092937469482
      ],
      [
        "▁१०",
        -7.950220584869385
      ],
      [
        "▁यांची",
        -7.956696510314941
      ],
      [
        "▁घ्या",
        -7.958267688751221
      ],
      [
        "▁सांगितले",
        -7.958287239074707
      ],
      [
        "ई",
        -7.961015224456787
      ],
      [
        "▁दर",
        -7.962177276611328
      ],
      [
        "ास",
        -7.962184429168701
      ],
      [
        "▁गेले",
        -7.963571071624756
      ],
      [
        "▁भेट",
        -7.967695713043213
      ],
      [
        "▁चा",
        -7.969012260437012
      ],
      [
        "णी",
        -7.977406978607178
      ],
      [
        "▁निर्माण",
        -7.9786906242370605
      ],
      [
        "▁पाटील",
        -7.981474876403809
      ],
      [
        "▁1",
        -7.9893717765808105
      ],
      [
        "▁सु",
        -7.990139007568359
      ],
      [
        "▁दिला",
        -7.990373134613037
      ],
      [
        "जी",
        -7.994526386260986
      ],
      [
        "▁धोरण",
        -7.996914863586426
      ],
      [
        "ुन",
        -8.000992774963379
      ],
      [
        "्या",
        -8.001587867736816
      ],
      [
        "▁मोबाईल",
        -8.002427101135254
      ],
      [
        "▁जर",
        -8.008105278015137
      ],
      [
        "▁ब",
        -8.011612892150879
      ],
      [
        "▁आपल्याला",
        -8.016250610351562
      ],
      [
        "▁शिक्षण",
        -8.019176483154297
      ],
      [
        "▁माझा",
        -8.020943641662598
      ],
      [
        "]",
        -8.024876594543457
      ],
      [
        "▁चार",
        -8.030367851257324
      ],
      [
        "▁मदत",
        -8.031269073486328
      ],
      [
        "▁केंद्र",
        -8.03146743774414
      ],
      [
        "(",
        -8.03336238861084
      ],
      [
        "▁परत",
        -8.035655975341797
      ],
      [
        "के",
        -8.040684700012207
      ],
      [
        "▁सुरु",
        -8.042587280273438
      ],
      [
        "▁ज्या",
        -8.044939041137695
      ],
      [
        "▁बाहेर",
        -8.045947074890137
      ],
      [
        "▁अगदी",
        -8.046688079833984
      ],
      [
        "▁यांचे",
        -8.051631927490234
      ],
      [
        "ांवर",
        -8.052146911621094
      ],
      [
        "वि",
        -8.052480697631836
      ],
      [
        "▁डॉक्टर",
        -8.062546730041504
      ],
      [
        "अ",
        -8.064929962158203
      ],
      [
        "▁इथे",
        -8.065658569335938
      ],
      [
        "▁सरकार",
        -8.068375587463379
      ],
      [
        "▁फोटो",
        -8.072629928588867
      ],
      [
        "▁व्यवहार",
        -8.073948860168457
      ],
      [
        "”",
        -8.079575538635254
      ],
      [
        "▁मे",
        -8.08324146270752
      ],
      [
        "▁पोस्ट",
        -8.085256576538086
      ],
      [
        "▁केवळ",
        -8.085661888122559
      ],
      [
        "▁अनुभव",
        -8.086263656616211
      ],
      [
        "▁घर",
        -8.090009689331055
      ],
      [
        "वे",
        -8.094103813171387
      ],
      [
        "▁जागा",
        -8.096994400024414
      ],
      [
        "▁विकास",
        -8.098668098449707
      ],
      [
        "▁कधीही",
        -8.10155963897705
      ],
      [
        "▁कोटी",
        -8.101624488830566
      ],
      [
        "▁असल्याचे",
        -8.102019309997559
      ],
      [
        "▁पाहिजे",
        -8.102934837341309
      ],
      [
        "▁आणखी",
        -8.106438636779785
      ],
      [
        "▁व्यक्ती",
        -8.108519554138184
      ],
      [
        "▁रे",
        -8.109570503234863
      ],
      [
        "▁म्हणाले",
        -8.111557960510254
      ],
      [
        "▁एकदा",
        -8.114442825317383
      ],
      [
        "▁पाच",
        -8.114916801452637
      ],
      [
        "▁त्याचा",
        -8.115702629089355
      ],
      [
        "▁असताना",
        -8.117037773132324
      ],
      [
        "▁मोठ्या",
        -8.119980812072754
      ],
      [
        "▁खेळ",
        -8.120661735534668
      ],
      [
        "टी",
        -8.12193775177002
      ],
      [
        "▁Marathi",
        -8.12697982788086
      ],
      [
        "▁आनंद",
        -8.127137184143066
      ],
      [
        "▁वाढ",
        -8.134286880493164
      ],
      [
        "▁सेवा",
        -8.136838912963867
      ],
      [
        "▁देण्यात",
        -8.138020515441895
      ],
      [
        "▁करणार",
        -8.139193534851074
      ],
      [
        "पर्यंत",
        -8.139533996582031
      ],
      [
        "▁जाहिरात",
        -8.142093658447266
      ],
      [
        "▁मा",
        -8.142539024353027
      ],
      [
        "▁नंतर",
        -8.143095016479492
      ],
      [
        "▁कोण",
        -8.145417213439941
      ],
      [
        "▁चर्चा",
        -8.14616584777832
      ],
      [
        "से",
        -8.146810531616211
      ],
      [
        "▁त्याने",
        -8.149271011352539
      ],
      [
        "▁प्रेम",
        -8.149508476257324
      ],
      [
        "▁बस",
        -8.149940490722656
      ],
      [
        "▁केलेल्या",
        -8.15035629272461
      ],
      [
        "▁माझे",
        -8.153690338134766
      ],
      [
        "▁नये",
        -8.155494689941406
      ],
      [
        "▁साहित्य",
        -8.15705394744873
      ],
      [
        "नं",
        -8.160483360290527
      ],
      [
        "▁देव",
        -8.163043022155762
      ],
      [
        "▁योग्य",
        -8.16305160522461
      ],
      [
        "▁आई",
        -8.164127349853516
      ],
      [
        "▁द्या",
        -8.164302825927734
      ],
      [
        "दा",
        -8.165935516357422
      ],
      [
        "▁होऊ",
        -8.166291236877441
      ],
      [
        "▁माझी",
        -8.169766426086426
      ],
      [
        "▁महिला",
        -8.171768188476562
      ],
      [
        "▁परंतु",
        -8.172714233398438
      ],
      [
        "▁यांचा",
        -8.174234390258789
      ],
      [
        "▁सर्वात",
        -8.174914360046387
      ],
      [
        "▁येते",
        -8.174939155578613
      ],
      [
        "▁घेतला",
        -8.175885200500488
      ],
      [
        "▁करतात",
        -8.17712688446045
      ],
      [
        "▁हो",
        -8.178071022033691
      ],
      [
        "▁छान",
        -8.178220748901367
      ],
      [
        "▁ने",
        -8.178266525268555
      ],
      [
        "▁हि",
        -8.182026863098145
      ],
      [
        "▁दाखल",
        -8.182583808898926
      ],
      [
        "▁मोदी",
        -8.183184623718262
      ],
      [
        "▁असल्याने",
        -8.183188438415527
      ],
      [
        "▁ठिकाणी",
        -8.188236236572266
      ],
      [
        "▁रुपये",
        -8.188368797302246
      ],
      [
        "ील",
        -8.190436363220215
      ],
      [
        "▁राज",
        -8.196163177490234
      ],
      [
        "ह",
        -8.196860313415527
      ],
      [
        "ख",
        -8.197334289550781
      ],
      [
        "▁स्वत",
        -8.197510719299316
      ],
      [
        "वी",
        -8.198298454284668
      ],
      [
        "▁सकाळ",
        -8.198792457580566
      ],
      [
        "▁त्याची",
        -8.200645446777344
      ],
      [
        "▁विशेष",
        -8.204008102416992
      ],
      [
        "▁विषय",
        -8.204670906066895
      ],
      [
        "▁व्यक्त",
        -8.206267356872559
      ],
      [
        "कडून",
        -8.210127830505371
      ],
      [
        "▁वेळी",
        -8.212287902832031
      ],
      [
        "लेल्या",
        -8.213546752929688
      ],
      [
        "िक",
        -8.216917991638184
      ],
      [
        "ामध्ये",
        -8.21962833404541
      ],
      [
        "▁गेला",
        -8.220702171325684
      ],
      [
        "ांत",
        -8.220985412597656
      ],
      [
        "▁2",
        -8.221002578735352
      ],
      [
        "▁ग",
        -8.221648216247559
      ],
      [
        "▁टक्के",
        -8.22230052947998
      ],
      [
        "▁मन",
        -8.222342491149902
      ],
      [
        "),",
        -8.22497844696045
      ],
      [
        "▁करण्याची",
        -8.229398727416992
      ],
      [
        "▁दि",
        -8.230242729187012
      ],
      [
        "▁आरोग्य",
        -8.233698844909668
      ],
      [
        "▁१९",
        -8.235153198242188
      ],
      [
        "▁अध्यक्ष",
        -8.236328125
      ],
      [
        "▁शहर",
        -8.23679256439209
      ],
      [
        "▁कर",
        -8.23684310913086
      ],
      [
        "▁ई",
        -8.237869262695312
      ],
      [
        "▁करतो",
        -8.239423751831055
      ],
      [
        "तून",
        -8.24026107788086
      ],
      [
        "▁प्रकार",
        -8.241617202758789
      ],
      [
        "▁सर्वाधिक",
        -8.241732597351074
      ],
      [
        "▁कसे",
        -8.244196891784668
      ],
      [
        "▁मुख्यमंत्री",
        -8.244379043579102
      ],
      [
        "▁त्यांचे",
        -8.247289657592773
      ],
      [
        "▁हात",
        -8.250732421875
      ],
      [
        "▁फार",
        -8.251652717590332
      ],
      [
        "सी",
        -8.252686500549316
      ],
      [
        "ए",
        -8.25439167022705
      ],
      [
        "नंतर",
        -8.254927635192871
      ],
      [
        "ंग",
        -8.25578498840332
      ],
      [
        "ामुळे",
        -8.260751724243164
      ],
      [
        "▁अर्थ",
        -8.26342487335205
      ],
      [
        "▁3",
        -8.26353645324707
      ],
      [
        "थ",
        -8.265064239501953
      ],
      [
        "▁नवी",
        -8.265667915344238
      ],
      [
        "▁मागणी",
        -8.267511367797852
      ],
      [
        "▁ए",
        -8.268308639526367
      ],
      [
        "▁त्यांची",
        -8.268988609313965
      ],
      [
        "▁पंतप्रधान",
        -8.270047187805176
      ],
      [
        "▁शेतकरी",
        -8.27080249786377
      ],
      [
        "▁करुन",
        -8.274897575378418
      ],
      [
        "▁पुस्तक",
        -8.274904251098633
      ],
      [
        "▁दिल्ली",
        -8.275018692016602
      ],
      [
        "ांमध्ये",
        -8.278167724609375
      ],
      [
        "संबंधी",
        -8.280383110046387
      ],
      [
        "▁शकतो",
        -8.280657768249512
      ],
      [
        "▁आपला",
        -8.284462928771973
      ],
      [
        "▁»",
        -8.2848482131958
      ],
      [
        "▁गरज",
        -8.28561019897461
      ],
      [
        "▁पासून",
        -8.285876274108887
      ],
      [
        "▁पोलिस",
        -8.28756046295166
      ],
      [
        "▁६",
        -8.287734985351562
      ],
      [
        "लो",
        -8.28907299041748
      ],
      [
        "▁देत",
        -8.289349555969238
      ],
      [
        "▁दिवशी",
        -8.290741920471191
      ],
      [
        "▁देखील",
        -8.29088020324707
      ],
      [
        "▁त्याचे",
        -8.293614387512207
      ],
      [
        "▁दोन्ही",
        -8.293843269348145
      ],
      [
        "▁देश",
        -8.299042701721191
      ],
      [
        "▁राष्ट्रीय",
        -8.299365043640137
      ],
      [
        "▁गाव",
        -8.299849510192871
      ],
      [
        "▁करताना",
        -8.302562713623047
      ],
      [
        "▁पिंपरी",
        -8.303399085998535
      ],
      [
        "▁भाषा",
        -8.303535461425781
      ],
      [
        "▁जी",
        -8.306334495544434
      ],
      [
        "▁घटना",
        -8.308698654174805
      ],
      [
        "▁रंग",
        -8.310186386108398
      ],
      [
        "▁प्र",
        -8.310770034790039
      ],
      [
        "▁तिला",
        -8.311294555664062
      ],
      [
        "▁महत्वाच्या",
        -8.312206268310547
      ],
      [
        "▁तिच्या",
        -8.312704086303711
      ],
      [
        "ायला",
        -8.313651084899902
      ],
      [
        "▁5",
        -8.314105987548828
      ],
      [
        "▁तुला",
        -8.31459903717041
      ],
      [
        "▁आवश्यक",
        -8.317059516906738
      ],
      [
        "▁आपली",
        -8.318236351013184
      ],
      [
        "त्या",
        -8.319936752319336
      ],
      [
        "▁सुंदर",
        -8.324538230895996
      ],
      [
        "▁लक्षात",
        -8.325034141540527
      ],
      [
        "▁10",
        -8.326226234436035
      ],
      [
        "आ",
        -8.326319694519043
      ],
      [
        "▁लागले",
        -8.331198692321777
      ],
      [
        "▁गोष्ट",
        -8.334315299987793
      ],
      [
        "ेल",
        -8.33596420288086
      ],
      [
        "▁भर",
        -8.336143493652344
      ],
      [
        "▁जो",
        -8.337458610534668
      ],
      [
        "▁करीत",
        -8.344954490661621
      ],
      [
        "▁याची",
        -8.349082946777344
      ],
      [
        "▁पु",
        -8.349878311157227
      ],
      [
        "▁योजना",
        -8.35019302368164
      ],
      [
        "ांसाठी",
        -8.350298881530762
      ],
      [
        "▁ऑफ",
        -8.352995872497559
      ],
      [
        "▁कार्य",
        -8.353616714477539
      ],
      [
        "▁विभाग",
        -8.354342460632324
      ],
      [
        "▁लहान",
        -8.35535717010498
      ],
      [
        "▁अधिकारी",
        -8.356514930725098
      ],
      [
        "▁विजय",
        -8.362312316894531
      ],
      [
        "▁गेली",
        -8.362573623657227
      ],
      [
        "की",
        -8.362890243530273
      ],
      [
        "▁साठी",
        -8.364343643188477
      ],
      [
        "▁घरी",
        -8.36503791809082
      ],
      [
        "१",
        -8.365067481994629
      ],
      [
        "▁ब्रेकिंग",
        -8.365629196166992
      ],
      [
        "▁सकाळी",
        -8.365724563598633
      ],
      [
        "com",
        -8.367892265319824
      ],
      [
        "▁आमदार",
        -8.369864463806152
      ],
      [
        "▁रेल्वे",
        -8.371214866638184
      ],
      [
        "▁७",
        -8.371708869934082
      ],
      [
        "d",
        -8.372325897216797
      ],
      [
        "बी",
        -8.372830390930176
      ],
      [
        "▁डिसेंबर",
        -8.374931335449219
      ],
      [
        "▁वर्षे",
        -8.375056266784668
      ],
      [
        "कार",
        -8.375234603881836
      ],
      [
        "फ",
        -8.375703811645508
      ],
      [
        "शा",
        -8.37602424621582
      ],
      [
        "▁घेतली",
        -8.380280494689941
      ],
      [
        "▁उपस्थित",
        -8.381531715393066
      ],
      [
        "▁सप्टेंबर",
        -8.38202953338623
      ],
      [
        "▁कार्यक्रम",
        -8.382529258728027
      ],
      [
        "▁दिवाळी",
        -8.38290023803711
      ],
      [
        "ंड",
        -8.38336181640625
      ],
      [
        "▁वाटते",
        -8.383620262145996
      ],
      [
        "पणे",
        -8.384857177734375
      ],
      [
        "▁मराठा",
        -8.385871887207031
      ],
      [
        "▁मार्ग",
        -8.389450073242188
      ],
      [
        "▁लक्ष",
        -8.390604019165039
      ],
      [
        "▁शोध",
        -8.390666961669922
      ],
      [
        "▁धर्म",
        -8.391798973083496
      ],
      [
        "▁)",
        -8.39348030090332
      ],
      [
        "▁पवार",
        -8.39381217956543
      ],
      [
        "▁वाट",
        -8.395535469055176
      ],
      [
        "▁जि",
        -8.39765453338623
      ],
      [
        "▁उ",
        -8.401646614074707
      ],
      [
        "प्र",
        -8.403658866882324
      ],
      [
        "▁चालू",
        -8.40402889251709
      ],
      [
        "▁यात",
        -8.406440734863281
      ],
      [
        "▁मिळविण्यासाठी",
        -8.406510353088379
      ],
      [
        "▁पहा",
        -8.407615661621094
      ],
      [
        "▁तत्काळ",
        -8.408326148986816
      ],
      [
        "▁नोटिफिकेशन्स",
        -8.409323692321777
      ],
      [
        "▁द",
        -8.410500526428223
      ],
      [
        "▁मित्र",
        -8.41219711303711
      ],
      [
        "▁पुरस्कार",
        -8.413053512573242
      ],
      [
        "▁करावे",
        -8.413249015808105
      ],
      [
        "▁नका",
        -8.41427993774414
      ],
      [
        "▁पोलीस",
        -8.414435386657715
      ],
      [
        "राव",
        -8.416253089904785
      ],
      [
        "२",
        -8.41653060913086
      ],
      [
        "▁टाईम्स",
        -8.417750358581543
      ],
      [
        "▁समाज",
        -8.420852661132812
      ],
      [
        "▁भाजप",
        -8.420865058898926
      ],
      [
        "▁निवडणूक",
        -8.421289443969727
      ],
      [
        "▁ओ",
        -8.421345710754395
      ],
      [
        "▁पुढील",
        -8.422442436218262
      ],
      [
        "▁आधी",
        -8.422738075256348
      ],
      [
        "▁करण्याचा",
        -8.426460266113281
      ],
      [
        "▁त्यानंतर",
        -8.430033683776855
      ],
      [
        "हा",
        -8.43030071258545
      ],
      [
        "▁पक्ष",
        -8.430668830871582
      ],
      [
        "▁अंक",
        -8.432101249694824
      ],
      [
        "▁प्रवास",
        -8.43222427368164
      ],
      [
        "▁उत्पादन",
        -8.433515548706055
      ],
      [
        "▁यासाठी",
        -8.433951377868652
      ],
      [
        "▁जातो",
        -8.434891700744629
      ],
      [
        "▁पार",
        -8.434896469116211
      ],
      [
        "▁नियम",
        -8.4353666305542
      ],
      [
        "▁सरकारने",
        -8.436867713928223
      ],
      [
        "▁माजी",
        -8.437087059020996
      ],
      [
        "▁चित्र",
        -8.43802261352539
      ],
      [
        "▁मत",
        -8.43807315826416
      ],
      [
        "▁ब्लॉग",
        -8.440024375915527
      ],
      [
        "▁भाव",
        -8.441429138183594
      ],
      [
        "▁रात्री",
        -8.441944122314453
      ],
      [
        "सह",
        -8.444480895996094
      ],
      [
        "▁चे",
        -8.444519996643066
      ],
      [
        "▁शकते",
        -8.445608139038086
      ],
      [
        "▁मोठा",
        -8.446760177612305
      ],
      [
        "▁खर्च",
        -8.448436737060547
      ],
      [
        "बद्दल",
        -8.450315475463867
      ],
      [
        "▁वर्ष",
        -8.450896263122559
      ],
      [
        "्य",
        -8.450931549072266
      ],
      [
        "सं",
        -8.45156192779541
      ],
      [
        "▁यावेळी",
        -8.452579498291016
      ],
      [
        "▁फेसबुक",
        -8.45473861694336
      ],
      [
        "▁खरेदी",
        -8.454896926879883
      ],
      [
        "▁मु",
        -8.456792831420898
      ],
      [
        "नि",
        -8.456949234008789
      ],
      [
        "▁दरम्यान",
        -8.458426475524902
      ],
      [
        "▁फॅमिली",
        -8.459824562072754
      ],
      [
        "▁जाहीर",
        -8.463467597961426
      ],
      [
        "▁गांधी",
        -8.463624000549316
      ],
      [
        "▁अर्ज",
        -8.463689804077148
      ],
      [
        "▁अजून",
        -8.46402359008789
      ],
      [
        "▁जन्म",
        -8.464396476745605
      ],
      [
        "▁आहोत",
        -8.46509075164795
      ],
      [
        "▁आम्हाला",
        -8.465665817260742
      ],
      [
        "▁करावी",
        -8.467941284179688
      ],
      [
        "▁के",
        -8.469985961914062
      ],
      [
        "e",
        -8.4717435836792
      ],
      [
        "▁होऊन",
        -8.474505424499512
      ],
      [
        "▁समोर",
        -8.475635528564453
      ],
      [
        "▁जग",
        -8.476264953613281
      ],
      [
        "▁प्रकाशने",
        -8.477070808410645
      ],
      [
        "▁प्रसिद्ध",
        -8.477293014526367
      ],
      [
        "▁सदस्य",
        -8.4778470993042
      ],
      [
        "▁गोपनीयतेचे",
        -8.477945327758789
      ],
      [
        "▁अभ्यास",
        -8.47973346710205
      ],
      [
        "+",
        -8.481536865234375
      ],
      [
        "डे",
        -8.482295036315918
      ],
      [
        "▁नोव्हेंबर",
        -8.482379913330078
      ],
      [
        "▁निवड",
        -8.482908248901367
      ],
      [
        "▁१५",
        -8.483332633972168
      ],
      [
        "▁२०१८",
        -8.484333038330078
      ],
      [
        "▁१८",
        -8.484580039978027
      ],
      [
        "▁वर्गणीदार",
        -8.486342430114746
      ],
      [
        "स्",
        -8.48667049407959
      ],
      [
        "पण",
        -8.48775863647461
      ],
      [
        "▁कसा",
        -8.488224029541016
      ],
      [
        "ण्यासाठी",
        -8.488608360290527
      ],
      [
        "▁।",
        -8.48919677734375
      ],
      [
        "पी",
        -8.490036964416504
      ],
      [
        "▁पहिल्या",
        -8.490104675292969
      ],
      [
        "▁जा",
        -8.49014949798584
      ],
      [
        "▁अॅप",
        -8.490453720092773
      ],
      [
        "▁मृत्यू",
        -8.49129867553711
      ],
      [
        "▁ब्राऊजर",
        -8.49289608001709
      ],
      [
        "▁करावा",
        -8.493620872497559
      ],
      [
        "▁आलेल्या",
        -8.49484634399414
      ],
      [
        "▁नाशिक",
        -8.495020866394043
      ],
      [
        "▁सबस्क्राईब",
        -8.49502944946289
      ],
      [
        "ंवर",
        -8.495190620422363
      ],
      [
        "▁रा",
        -8.495437622070312
      ],
      [
        "णा",
        -8.497430801391602
      ],
      [
        "▁नोटिफिकेशन",
        -8.498676300048828
      ],
      [
        "▁किंमत",
        -8.49898624420166
      ],
      [
        "▁त्यांचा",
        -8.499375343322754
      ],
      [
        "▁करायला",
        -8.50179386138916
      ],
      [
        "▁ता",
        -8.502052307128906
      ],
      [
        "▁सहा",
        -8.502923011779785
      ],
      [
        "▁शेती",
        -8.503016471862793
      ],
      [
        "ाशी",
        -8.503954887390137
      ],
      [
        "▁गो",
        -8.504799842834473
      ],
      [
        "दार",
        -8.504815101623535
      ],
      [
        "▁सेटिंग्जमध्ये",
        -8.505252838134766
      ],
      [
        "▁बातम्यांची",
        -8.50589370727539
      ],
      [
        "t",
        -8.506631851196289
      ],
      [
        "▁कथा",
        -8.506867408752441
      ],
      [
        "णार",
        -8.507600784301758
      ],
      [
        "▁न्यूजची",
        -8.508591651916504
      ],
      [
        "▁प्रमुख",
        -8.509246826171875
      ],
      [
        "▁सर",
        -8.509268760681152
      ],
      [
        "डा",
        -8.510982513427734
      ],
      [
        "▁जीवन",
        -8.511622428894043
      ],
      [
        "▁काळात",
        -8.512516021728516
      ],
      [
        "ाचं",
        -8.512713432312012
      ],
      [
        "▁रिफंड",
        -8.513116836547852
      ],
      [
        "▁दूर",
        -8.514342308044434
      ],
      [
        "हे",
        -8.514488220214844
      ],
      [
        "▁4",
        -8.514692306518555
      ],
      [
        "▁घेत",
        -8.515318870544434
      ],
      [
        "णाऱ्या",
        -8.515785217285156
      ],
      [
        "▁स्त्री",
        -8.516008377075195
      ],
      [
        "▁२०१७",
        -8.516546249389648
      ],
      [
        "▁लेखक",
        -8.517518997192383
      ],
      [
        "▁कशी",
        -8.520316123962402
      ],
      [
        "▁संस्था",
        -8.52118968963623
      ],
      [
        "▁याचा",
        -8.522387504577637
      ],
      [
        "▁केलं",
        -8.524624824523926
      ],
      [
        "▁नको",
        -8.524896621704102
      ],
      [
        "▁जाणार",
        -8.5263671875
      ],
      [
        "▁१६",
        -8.526702880859375
      ],
      [
        "▁e",
        -8.529257774353027
      ],
      [
        "जा",
        -8.529884338378906
      ],
      [
        "तात",
        -8.529962539672852
      ],
      [
        "▁संपूर्ण",
        -8.5300931930542
      ],
      [
        "▁वाचा",
        -8.531646728515625
      ],
      [
        "▁उत्तम",
        -8.534151077270508
      ],
      [
        "▁८",
        -8.534735679626465
      ],
      [
        "▁वाटत",
        -8.535344123840332
      ],
      [
        "▁काँग्रेस",
        -8.535974502563477
      ],
      [
        "▁जेव्हा",
        -8.536370277404785
      ],
      [
        "▁प्रकल्प",
        -8.536416053771973
      ],
      [
        "▁प्रवेश",
        -8.538290977478027
      ],
      [
        "लेले",
        -8.538309097290039
      ],
      [
        "▁स्पष्ट",
        -8.540167808532715
      ],
      [
        "▁तुझ्या",
        -8.540197372436523
      ],
      [
        "▁फोन",
        -8.541141510009766
      ],
      [
        "▁पैसे",
        -8.54279613494873
      ],
      [
        "▁सुरुवात",
        -8.543312072753906
      ],
      [
        "▁नक्की",
        -8.544743537902832
      ],
      [
        "▁बी",
        -8.548798561096191
      ],
      [
        "▁मागे",
        -8.54902458190918
      ],
      [
        "▁प्रतिक्रिया",
        -8.55112075805664
      ],
      [
        "y",
        -8.551541328430176
      ],
      [
        "▁असतील",
        -8.552118301391602
      ],
      [
        "▁ची",
        -8.55447769165039
      ],
      [
        "▁तास",
        -8.557093620300293
      ],
      [
        "गाव",
        -8.557570457458496
      ],
      [
        "▁र",
        -8.557645797729492
      ],
      [
        "पणा",
        -8.560765266418457
      ],
      [
        "▁म्हणतात",
        -8.564105987548828
      ],
      [
        "▁झालं",
        -8.564318656921387
      ],
      [
        "▁मस्त",
        -8.566193580627441
      ],
      [
        "▁कारवाई",
        -8.57107925415039
      ],
      [
        "ाकडे",
        -8.571819305419922
      ],
      [
        "▁राम",
        -8.571905136108398
      ],
      [
        "▁कुठे",
        -8.576057434082031
      ],
      [
        "in",
        -8.576220512390137
      ],
      [
        "▁२०",
        -8.576996803283691
      ],
      [
        "ऱ्या",
        -8.578880310058594
      ],
      [
        "▁संबंधित",
        -8.58076000213623
      ],
      [
        "▁संघ",
        -8.58098030090332
      ],
      [
        "▁संधी",
        -8.586089134216309
      ],
      [
        "▁मनात",
        -8.58777904510498
      ],
      [
        "झ",
        -8.587998390197754
      ],
      [
        "▁जाईल",
        -8.588321685791016
      ],
      [
        "॥",
        -8.590109825134277
      ],
      [
        "▁वगैरे",
        -8.59175968170166
      ],
      [
        "▁eSakal",
        -8.5918607711792
      ],
      [
        "▁गणेश",
        -8.593728065490723
      ],
      [
        "▁डाऊनलोड",
        -8.595890045166016
      ],
      [
        "▁लग्न",
        -8.596735000610352
      ],
      [
        "▁मान",
        -8.5971040725708
      ],
      [
        "▁दिसत",
        -8.59787368774414
      ],
      [
        "▁करणाऱ्या",
        -8.59812068939209
      ],
      [
        "▁इंग्रजी",
        -8.59992790222168
      ],
      [
        "▁तरुण",
        -8.6001558303833
      ],
      [
        "▁ओळख",
        -8.600586891174316
      ],
      [
        "▁भारतात",
        -8.600777626037598
      ],
      [
        "▁येतो",
        -8.602057456970215
      ],
      [
        "▁सामाजिक",
        -8.604411125183105
      ],
      [
        "व्या",
        -8.604621887207031
      ],
      [
        "▁संपर्क",
        -8.604772567749023
      ],
      [
        "▁जानेवारी",
        -8.606130599975586
      ],
      [
        "▁१२",
        -8.606817245483398
      ],
      [
        "▁राजकीय",
        -8.610929489135742
      ],
      [
        "▁आय",
        -8.611593246459961
      ],
      [
        "▁११",
        -8.61202621459961
      ],
      [
        "▁ल",
        -8.61502456665039
      ],
      [
        "▁@",
        -8.616235733032227
      ],
      [
        "▁तिथे",
        -8.617120742797852
      ],
      [
        "उ",
        -8.618508338928223
      ],
      [
        "▁पर्यंत",
        -8.61988353729248
      ],
      [
        "▁वर्षी",
        -8.620499610900879
      ],
      [
        "ां",
        -8.620553016662598
      ],
      [
        "▁कोणत्याही",
        -8.620710372924805
      ],
      [
        "▁ठाकरे",
        -8.622162818908691
      ],
      [
        "▁प्रा",
        -8.62302303314209
      ],
      [
        "▁19",
        -8.62539291381836
      ],
      [
        "▁ख",
        -8.625868797302246
      ],
      [
        "१९",
        -8.627446174621582
      ],
      [
        "ताना",
        -8.627660751342773
      ],
      [
        "▁केल्या",
        -8.628782272338867
      ],
      [
        "▁शेअर",
        -8.629162788391113
      ],
      [
        "▁नागपूर",
        -8.63236141204834
      ],
      [
        "▁सुद्धा",
        -8.634264945983887
      ],
      [
        "▁समिती",
        -8.634897232055664
      ],
      [
        "▁शकतात",
        -8.636356353759766
      ],
      [
        "▁नरेंद्र",
        -8.636425018310547
      ],
      [
        "▁शकत",
        -8.636966705322266
      ],
      [
        "ावे",
        -8.637575149536133
      ],
      [
        "▁शाळा",
        -8.639055252075195
      ],
      [
        "▁आंदोलन",
        -8.639126777648926
      ],
      [
        "▁काल",
        -8.640592575073242
      ],
      [
        "▁कोणी",
        -8.640756607055664
      ],
      [
        "गा",
        -8.642696380615234
      ],
      [
        "जे",
        -8.642855644226074
      ],
      [
        "▁लागली",
        -8.643887519836426
      ],
      [
        "▁हक्क",
        -8.64857006072998
      ],
      [
        "▁खाली",
        -8.64964771270752
      ],
      [
        "▁दे",
        -8.650686264038086
      ],
      [
        "▁यामुळे",
        -8.650962829589844
      ],
      [
        "▁आरोप",
        -8.6531982421875
      ],
      [
        "ंत",
        -8.653890609741211
      ],
      [
        "न्स",
        -8.654126167297363
      ],
      [
        "दि",
        -8.654273986816406
      ],
      [
        "▁6",
        -8.654369354248047
      ],
      [
        "o",
        -8.655485153198242
      ],
      [
        "▁करते",
        -8.65747356414795
      ],
      [
        "▁मोठी",
        -8.658247947692871
      ],
      [
        "▁यश",
        -8.663111686706543
      ],
      [
        "▁ऑगस्ट",
        -8.663150787353516
      ],
      [
        "▁जातात",
        -8.663169860839844
      ],
      [
        "▁शक्यता",
        -8.663846969604492
      ],
      [
        "▁त्यावर",
        -8.66478443145752
      ],
      [
        "स्ट",
        -8.665095329284668
      ],
      [
        "बा",
        -8.666619300842285
      ],
      [
        "a",
        -8.66702938079834
      ],
      [
        "▁उच्च",
        -8.667827606201172
      ],
      [
        "▁महाराज",
        -8.668140411376953
      ],
      [
        "▁अत्यंत",
        -8.668418884277344
      ],
      [
        "▁ह",
        -8.668526649475098
      ],
      [
        "▁एखाद्या",
        -8.672070503234863
      ],
      [
        "▁ऑक्टोबर",
        -8.672662734985352
      ],
      [
        "▁कृषी",
        -8.673187255859375
      ],
      [
        "▁जवळ",
        -8.67362117767334
      ],
      [
        "ण्यात",
        -8.67392349243164
      ],
      [
        "▁एकत्र",
        -8.675861358642578
      ],
      [
        "▁एकूण",
        -8.676904678344727
      ],
      [
        "▁देऊन",
        -8.6776123046875
      ],
      [
        "▁घेतले",
        -8.678531646728516
      ],
      [
        "▁अतिशय",
        -8.682498931884766
      ],
      [
        "▁निकाल",
        -8.685869216918945
      ],
      [
        "▁स्पर्धा",
        -8.685881614685059
      ],
      [
        "टे",
        -8.686391830444336
      ],
      [
        "▁भूमिका",
        -8.686908721923828
      ],
      [
        "▁दुसऱ्या",
        -8.686999320983887
      ],
      [
        "▁२०१६",
        -8.687617301940918
      ],
      [
        "▁इतिहास",
        -8.687739372253418
      ],
      [
        "▁नव्हे",
        -8.689064979553223
      ],
      [
        "▁कु",
        -8.689488410949707
      ],
      [
        "▁परिणाम",
        -8.690132141113281
      ],
      [
        "Paper",
        -8.691006660461426
      ],
      [
        "३",
        -8.691967964172363
      ],
      [
        "▁म्हटले",
        -8.692173957824707
      ],
      [
        "▁९",
        -8.692266464233398
      ],
      [
        "▁S",
        -8.692363739013672
      ],
      [
        "ण्याची",
        -8.693243026733398
      ],
      [
        "र्",
        -8.694069862365723
      ],
      [
        "▁क्लिक",
        -8.694097518920898
      ],
      [
        "▁क्रिकेट",
        -8.696185111999512
      ],
      [
        "▁सा",
        -8.696303367614746
      ],
      [
        "▁त्यासाठी",
        -8.69668960571289
      ],
      [
        "▁बँक",
        -8.697102546691895
      ],
      [
        "▁महा",
        -8.698324203491211
      ],
      [
        "▁समावेश",
        -8.69935131072998
      ],
      [
        "▁[",
        -8.699555397033691
      ],
      [
        "▁Newsletter",
        -8.70015811920166
      ],
      [
        "ंमध्ये",
        -8.707905769348145
      ],
      [
        "▁लोकांना",
        -8.708935737609863
      ],
      [
        "▁परवलीचा",
        -8.71142578125
      ],
      [
        "▁लागेल",
        -8.711514472961426
      ],
      [
        "al",
        -8.712398529052734
      ],
      [
        "▁उप",
        -8.71257209777832
      ],
      [
        "पेक्षा",
        -8.714337348937988
      ],
      [
        "मान",
        -8.71493148803711
      ],
      [
        "▁होत्या",
        -8.716561317443848
      ],
      [
        "▁कायम",
        -8.717016220092773
      ],
      [
        "▁आर",
        -8.717464447021484
      ],
      [
        "▁लागला",
        -8.718596458435059
      ],
      [
        "▁चांगले",
        -8.718875885009766
      ],
      [
        "▁जुलै",
        -8.718935012817383
      ],
      [
        "▁बे",
        -8.719406127929688
      ],
      [
        "▁को",
        -8.720247268676758
      ],
      [
        "▁असलेले",
        -8.720858573913574
      ],
      [
        "▁रि",
        -8.724663734436035
      ],
      [
        "▁विश्वास",
        -8.727583885192871
      ],
      [
        "▁मंदिर",
        -8.728034973144531
      ],
      [
        "▁प्रतिसाद",
        -8.728178024291992
      ],
      [
        "▁जिल्ह्यातील",
        -8.728646278381348
      ],
      [
        "वरून",
        -8.730500221252441
      ],
      [
        "▁अन",
        -8.73064136505127
      ],
      [
        "c",
        -8.73349666595459
      ],
      [
        "▁माध्यमातून",
        -8.734951972961426
      ],
      [
        "▁सी",
        -8.735188484191895
      ],
      [
        "▁A",
        -8.736010551452637
      ],
      [
        "▁प्रमाणात",
        -8.736210823059082
      ],
      [
        "मधून",
        -8.738804817199707
      ],
      [
        "वरील",
        -8.738897323608398
      ],
      [
        "▁मि",
        -8.739813804626465
      ],
      [
        "ायचे",
        -8.73988151550293
      ],
      [
        "टा",
        -8.74012565612793
      ],
      [
        "▁वाचलेले",
        -8.740169525146484
      ],
      [
        "▁सादर",
        -8.741671562194824
      ],
      [
        "▁व्यवसाय",
        -8.745694160461426
      ],
      [
        "▁दहा",
        -8.746004104614258
      ],
      [
        "▁जाणून",
        -8.746048927307129
      ],
      [
        "▁काढून",
        -8.74793529510498
      ],
      [
        "मन",
        -8.748248100280762
      ],
      [
        "▁डी",
        -8.7483491897583
      ],
      [
        "▁पदार्थ",
        -8.748897552490234
      ],
      [
        ".\"",
        -8.7516450881958
      ],
      [
        "A",
        -8.75171947479248
      ],
      [
        "▁प्राप्त",
        -8.751760482788086
      ],
      [
        "▁हवा",
        -8.752622604370117
      ],
      [
        "▁कर्ज",
        -8.75356674194336
      ],
      [
        "▁काळ",
        -8.753684997558594
      ],
      [
        "▁ऑनलाइन",
        -8.753743171691895
      ],
      [
        "▁7",
        -8.7548246383667
      ],
      [
        "▁ज",
        -8.755131721496582
      ],
      [
        "▁पुरुष",
        -8.757691383361816
      ],
      [
        "▁सुमारे",
        -8.757865905761719
      ],
      [
        "▁गट",
        -8.759622573852539
      ],
      [
        "ीय",
        -8.760282516479492
      ],
      [
        "▁मार्च",
        -8.76052188873291
      ],
      [
        "णं",
        -8.761946678161621
      ],
      [
        "▁तसे",
        -8.763177871704102
      ],
      [
        "इ",
        -8.76772689819336
      ],
      [
        "▁क्षेत्र",
        -8.768268585205078
      ],
      [
        "▁अटक",
        -8.768533706665039
      ],
      [
        "w",
        -8.7717866897583
      ],
      [
        "▁नगर",
        -8.772613525390625
      ],
      [
        "▁संबंध",
        -8.773249626159668
      ],
      [
        "▁बरोबर",
        -8.774031639099121
      ],
      [
        "ंट",
        -8.77436637878418
      ],
      [
        "▁पान",
        -8.775923728942871
      ],
      [
        "▁नेते",
        -8.776297569274902
      ],
      [
        "▁असो",
        -8.777446746826172
      ],
      [
        "▁प्रकाश",
        -8.777647972106934
      ],
      [
        "▁ज्ञान",
        -8.77890682220459
      ],
      [
        "▁धन्यवाद",
        -8.77990436553955
      ],
      [
        "▁मंत्री",
        -8.78532600402832
      ],
      [
        "▁शिवाजी",
        -8.785392761230469
      ],
      [
        "▁बा",
        -8.78626823425293
      ],
      [
        "▁जाऊ",
        -8.78972339630127
      ],
      [
        "▁समस्या",
        -8.78986930847168
      ],
      [
        "▁..",
        -8.791196823120117
      ],
      [
        "▁पहिला",
        -8.791667938232422
      ],
      [
        "▁सगळे",
        -8.791767120361328
      ],
      [
        "ंद",
        -8.792828559875488
      ],
      [
        "हि",
        -8.794564247131348
      ],
      [
        "▁आरक्षण",
        -8.796116828918457
      ],
      [
        "▁गुण",
        -8.796392440795898
      ],
      [
        "▁केलेले",
        -8.796536445617676
      ],
      [
        "▁वाजता",
        -8.798078536987305
      ],
      [
        "▁एस",
        -8.798561096191406
      ],
      [
        "र्स",
        -8.799708366394043
      ],
      [
        "▁शक्य",
        -8.800460815429688
      ],
      [
        "▁8",
        -8.800488471984863
      ],
      [
        "://",
        -8.801179885864258
      ],
      [
        "▁प्रमाण",
        -8.802223205566406
      ],
      [
        "▁एप्रिल",
        -8.803482055664062
      ],
      [
        "▁संगीत",
        -8.803746223449707
      ],
      [
        "▁उद्योग",
        -8.804460525512695
      ],
      [
        "त्व",
        -8.804593086242676
      ],
      [
        "▁दु",
        -8.805421829223633
      ],
      [
        "ओ",
        -8.805646896362305
      ],
      [
        "▁दिन",
        -8.807531356811523
      ],
      [
        "प्रमाणे",
        -8.808826446533203
      ],
      [
        "▁राज्यात",
        -8.809708595275879
      ],
      [
        "▁राज्यातील",
        -8.81078052520752
      ],
      [
        "▁मोठे",
        -8.812911987304688
      ],
      [
        "▁मिळेल",
        -8.813414573669434
      ],
      [
        "S",
        -8.813531875610352
      ],
      [
        "▁संख्या",
        -8.814282417297363
      ],
      [
        "▁भागात",
        -8.814554214477539
      ],
      [
        "▁शिंदे",
        -8.81690502166748
      ],
      [
        "▁करण्याचे",
        -8.817230224609375
      ],
      [
        "▁सिनेमा",
        -8.818350791931152
      ],
      [
        "▁लेखन",
        -8.818629264831543
      ],
      [
        "▁खा",
        -8.822572708129883
      ],
      [
        "ायची",
        -8.823802947998047
      ],
      [
        "▁लागू",
        -8.823859214782715
      ],
      [
        "▁नव्या",
        -8.825143814086914
      ],
      [
        "▁मंडळ",
        -8.828959465026855
      ],
      [
        "▁सं",
        -8.829076766967773
      ],
      [
        "▁बद्दल",
        -8.829156875610352
      ],
      [
        "▁उपाय",
        -8.829950332641602
      ],
      [
        "▁क्रमांक",
        -8.829994201660156
      ],
      [
        "▁टी",
        -8.830917358398438
      ],
      [
        "सु",
        -8.831046104431152
      ],
      [
        "▁झाल्या",
        -8.833613395690918
      ],
      [
        "▁रु",
        -8.8339204788208
      ],
      [
        "▁घरात",
        -8.836929321289062
      ],
      [
        "n",
        -8.83704662322998
      ],
      [
        "▁जीव",
        -8.837434768676758
      ],
      [
        "%",
        -8.838348388671875
      ],
      [
        "▁B",
        -8.839588165283203
      ],
      [
        "▁C",
        -8.83991813659668
      ],
      [
        "▁प्रदेश",
        -8.840057373046875
      ],
      [
        "▁झोप",
        -8.842550277709961
      ],
      [
        "▁बातम्यांसाठी",
        -8.842628479003906
      ],
      [
        "४",
        -8.844178199768066
      ],
      [
        "▁परीक्षा",
        -8.84427261352539
      ],
      [
        "▁असू",
        -8.845207214355469
      ],
      [
        "▁तिने",
        -8.845664024353027
      ],
      [
        "▁एम",
        -8.846827507019043
      ],
      [
        "r",
        -8.848283767700195
      ],
      [
        "▁कोणत्या",
        -8.848722457885742
      ],
      [
        "▁तरीही",
        -8.849392890930176
      ],
      [
        "▁लाभ",
        -8.85012435913086
      ],
      [
        "▁हिंदू",
        -8.850454330444336
      ],
      [
        "▁खास",
        -8.85161304473877
      ],
      [
        "▁आत",
        -8.852622985839844
      ],
      [
        "▁सूचना",
        -8.853039741516113
      ],
      [
        "▁वर्ग",
        -8.8533353805542
      ],
      [
        "▁शिक्षक",
        -8.85452651977539
      ],
      [
        "P",
        -8.85499382019043
      ],
      [
        "▁खालील",
        -8.856541633605957
      ],
      [
        "चिंचवड",
        -8.85661792755127
      ],
      [
        "▁जण",
        -8.85719108581543
      ],
      [
        "▁देशात",
        -8.857938766479492
      ],
      [
        "▁तुमचा",
        -8.859243392944336
      ],
      [
        "पु",
        -8.859785079956055
      ],
      [
        "ानंतर",
        -8.861166000366211
      ],
      [
        "▁परिषद",
        -8.86203384399414
      ],
      [
        "▁शुभेच्छा",
        -8.862135887145996
      ],
      [
        "[",
        -8.862262725830078
      ],
      [
        "▁व्हिडिओ",
        -8.862963676452637
      ],
      [
        "▁प्रथम",
        -8.863105773925781
      ],
      [
        "▁खेळाडू",
        -8.863485336303711
      ],
      [
        "▁पी",
        -8.863497734069824
      ],
      [
        "▁करणारे",
        -8.863604545593262
      ],
      [
        "▁नोंद",
        -8.863638877868652
      ],
      [
        "▁12",
        -8.866387367248535
      ],
      [
        "▁आदेश",
        -8.867475509643555
      ],
      [
        "▁पाहून",
        -8.868264198303223
      ],
      [
        "▁आंबेडकर",
        -8.86847972869873
      ],
      [
        "▁सात",
        -8.868810653686523
      ],
      [
        "▁भरती",
        -8.869028091430664
      ],
      [
        "▁संप",
        -8.870828628540039
      ],
      [
        ".”",
        -8.87299633026123
      ],
      [
        "▁काळजी",
        -8.873148918151855
      ],
      [
        "▁वस्तू",
        -8.873514175415039
      ],
      [
        "▁लागते",
        -8.873735427856445
      ],
      [
        "बाबत",
        -8.874074935913086
      ],
      [
        "▁असतं",
        -8.874595642089844
      ],
      [
        "▁परिस्थिती",
        -8.874890327453613
      ],
      [
        "▁कंपनी",
        -8.8751220703125
      ],
      [
        "नुसार",
        -8.875426292419434
      ],
      [
        "मो",
        -8.877252578735352
      ],
      [
        "▁सगळ्या",
        -8.877557754516602
      ],
      [
        "ठ",
        -8.879169464111328
      ],
      [
        "▁पर्याय",
        -8.879443168640137
      ],
      [
        "▁कल्पना",
        -8.881528854370117
      ],
      [
        "मे",
        -8.884305953979492
      ],
      [
        "▁कोल्हापूर",
        -8.884528160095215
      ],
      [
        "▁इंडिया",
        -8.88476276397705
      ],
      [
        "▁सामना",
        -8.885326385498047
      ],
      [
        "▁येतात",
        -8.886072158813477
      ],
      [
        "▁स्थानिक",
        -8.886073112487793
      ],
      [
        "▁सहभागी",
        -8.886356353759766
      ],
      [
        "▁आयुष्य",
        -8.886784553527832
      ],
      [
        "▁म्हणाला",
        -8.887018203735352
      ],
      [
        "▁आल्या",
        -8.8871488571167
      ],
      [
        "▁दक्षिण",
        -8.887317657470703
      ],
      [
        "▁+",
        -8.88774299621582
      ],
      [
        "▁बातमी",
        -8.888346672058105
      ],
      [
        "▁राष्ट्रवादी",
        -8.888375282287598
      ],
      [
        "▁पा",
        -8.888453483581543
      ],
      [
        "▁जून",
        -8.888472557067871
      ],
      [
        "▁वेळा",
        -8.888760566711426
      ],
      [
        "▁पोलिसांनी",
        -8.888861656188965
      ],
      [
        "▁ये",
        -8.889495849609375
      ],
      [
        "▁होतात",
        -8.889754295349121
      ],
      [
        "▁दिलेल्या",
        -8.890606880187988
      ],
      [
        "▁खान",
        -8.891362190246582
      ],
      [
        "ापासून",
        -8.89164924621582
      ],
      [
        "▁सुविधा",
        -8.891845703125
      ],
      [
        "▁कुटुंब",
        -8.892809867858887
      ],
      [
        "ळी",
        -8.892983436584473
      ],
      [
        "▁संत",
        -8.8930025100708
      ],
      [
        "▁नोकरी",
        -8.893108367919922
      ],
      [
        "▁आवाज",
        -8.893959045410156
      ],
      [
        "आणि",
        -8.894776344299316
      ],
      [
        "▁शिव",
        -8.895991325378418
      ],
      [
        "i",
        -8.896322250366211
      ],
      [
        "▁मिळत",
        -8.89808464050293
      ],
      [
        "शे",
        -8.898204803466797
      ],
      [
        "▁राहुल",
        -8.898470878601074
      ],
      [
        "▁जरा",
        -8.899398803710938
      ],
      [
        "▁असता",
        -8.901494979858398
      ],
      [
        "रो",
        -8.901802062988281
      ],
      [
        "भ",
        -8.9021635055542
      ],
      [
        "▁औरंगाबाद",
        -8.902253150939941
      ],
      [
        "▁फेब्रुवारी",
        -8.904096603393555
      ],
      [
        "▁मो",
        -8.905990600585938
      ],
      [
        "▁करण्यास",
        -8.906102180480957
      ],
      [
        "M",
        -8.909537315368652
      ],
      [
        "▁in",
        -8.910331726074219
      ],
      [
        "▁कार",
        -8.910658836364746
      ],
      [
        "▁20",
        -8.912300109863281
      ],
      [
        "▁येऊ",
        -8.913429260253906
      ],
      [
        "सोबत",
        -8.914856910705566
      ],
      [
        "ण्या",
        -8.91533088684082
      ],
      [
        "D",
        -8.915665626525879
      ],
      [
        "k",
        -8.916057586669922
      ],
      [
        "▁श",
        -8.916476249694824
      ],
      [
        "▁पाऊस",
        -8.916542053222656
      ],
      [
        "▁डे",
        -8.91698932647705
      ],
      [
        "▁गंभीर",
        -8.917708396911621
      ],
      [
        "वून",
        -8.91878604888916
      ],
      [
        "▁यावर",
        -8.919440269470215
      ],
      [
        "▁आंतरराष्ट्रीय",
        -8.91971206665039
      ],
      [
        "ंसाठी",
        -8.920021057128906
      ],
      [
        "▁स्थापना",
        -8.92067813873291
      ],
      [
        "▁स्वागत",
        -8.92186164855957
      ],
      [
        "५",
        -8.926698684692383
      ],
      [
        "▁स्",
        -8.927000999450684
      ],
      [
        "पूर",
        -8.928072929382324
      ],
      [
        "▁घालून",
        -8.928304672241211
      ],
      [
        "▁१४",
        -8.928861618041992
      ],
      [
        "▁11",
        -8.92916488647461
      ],
      [
        "▁१७",
        -8.929261207580566
      ],
      [
        "▁थेट",
        -8.9305419921875
      ],
      [
        "marathi",
        -8.931682586669922
      ],
      [
        "लेली",
        -8.932193756103516
      ],
      [
        "▁राष्ट्र",
        -8.932698249816895
      ],
      [
        "ेस",
        -8.933978080749512
      ],
      [
        "ध",
        -8.934663772583008
      ],
      [
        "नगर",
        -8.93529224395752
      ],
      [
        "▁पेज",
        -8.935508728027344
      ],
      [
        "▁जागतिक",
        -8.935796737670898
      ],
      [
        "▁खरे",
        -8.935807228088379
      ],
      [
        "▁वाद",
        -8.936768531799316
      ],
      [
        "▁आलं",
        -8.938772201538086
      ],
      [
        "▁पाय",
        -8.938775062561035
      ],
      [
        "▁आदी",
        -8.939010620117188
      ],
      [
        "पा",
        -8.939253807067871
      ],
      [
        "▁संशोधन",
        -8.940400123596191
      ],
      [
        "▁त्रास",
        -8.941789627075195
      ],
      [
        "▁क्र",
        -8.942060470581055
      ],
      [
        "▁गाडी",
        -8.942534446716309
      ],
      [
        "▁मूळ",
        -8.943626403808594
      ],
      [
        "▁असल्यास",
        -8.944018363952637
      ],
      [
        "▁इच्छा",
        -8.945945739746094
      ],
      [
        "▁याबाबत",
        -8.946547508239746
      ],
      [
        "ण्याचा",
        -8.946709632873535
      ],
      [
        "ष",
        -8.948166847229004
      ],
      [
        "▁’",
        -8.948223114013672
      ],
      [
        "▁मिळाली",
        -8.948259353637695
      ],
      [
        "▁ग्रंथ",
        -8.948430061340332
      ],
      [
        "▁३०",
        -8.948725700378418
      ],
      [
        "ानं",
        -8.949923515319824
      ],
      [
        "▁चांगला",
        -8.952651023864746
      ],
      [
        "सुद्धा",
        -8.953666687011719
      ],
      [
        "▁Kavita",
        -8.954781532287598
      ],
      [
        "▁सत्य",
        -8.955376625061035
      ],
      [
        "▁M",
        -8.955498695373535
      ],
      [
        "▁२५",
        -8.956648826599121
      ],
      [
        "▁अधिकार",
        -8.957623481750488
      ],
      [
        "▁येऊन",
        -8.959014892578125
      ],
      [
        "▁फडणवीस",
        -8.960866928100586
      ],
      [
        "▁घोषणा",
        -8.961194038391113
      ],
      [
        "▁9",
        -8.961978912353516
      ],
      [
        "▁जिल्ह्यात",
        -8.962662696838379
      ],
      [
        "▁विकिपीडिया",
        -8.963311195373535
      ],
      [
        "▁P",
        -8.964598655700684
      ],
      [
        "C",
        -8.967215538024902
      ],
      [
        "▁तेल",
        -8.9680814743042
      ],
      [
        "ः",
        -8.968435287475586
      ],
      [
        "▁उपचार",
        -8.96937370300293
      ],
      [
        "▁विषयी",
        -8.969779968261719
      ],
      [
        "▁यशस्वी",
        -8.969968795776367
      ],
      [
        "▁उघड",
        -8.97064208984375
      ],
      [
        "▁हवी",
        -8.971168518066406
      ],
      [
        "दर",
        -8.971925735473633
      ],
      [
        "▁सि",
        -8.972203254699707
      ],
      [
        "▁अथवा",
        -8.972661972045898
      ],
      [
        "राज",
        -8.973959922790527
      ],
      [
        "▁लवकरच",
        -8.974455833435059
      ],
      [
        "▁नव्हते",
        -8.974661827087402
      ],
      [
        "▁बोल",
        -8.975876808166504
      ],
      [
        "एस",
        -8.976032257080078
      ],
      [
        "▁देऊ",
        -8.976604461669922
      ],
      [
        "ळे",
        -8.978230476379395
      ],
      [
        "▁संजय",
        -8.978931427001953
      ],
      [
        "▁तेथे",
        -8.980083465576172
      ],
      [
        "▁शहरात",
        -8.98060131072998
      ],
      [
        "▁केंद्रीय",
        -8.980854988098145
      ],
      [
        "▁पुस्तके",
        -8.981789588928223
      ],
      [
        "्‍या",
        -8.981904983520508
      ],
      [
        "ायचं",
        -8.982049942016602
      ],
      [
        "व्ह",
        -8.982267379760742
      ],
      [
        "▁नेहमी",
        -8.985193252563477
      ],
      [
        "▁बोलत",
        -8.985806465148926
      ],
      [
        "▁असलेली",
        -8.985856056213379
      ],
      [
        "▁माणूस",
        -8.985861778259277
      ],
      [
        "▁यादी",
        -8.986491203308105
      ],
      [
        "▁पूर्व",
        -8.987874031066895
      ],
      [
        "▁15",
        -8.989446640014648
      ],
      [
        "▁खासदार",
        -8.989752769470215
      ],
      [
        "▁ठेवा",
        -8.990467071533203
      ],
      [
        "▁उपयोग",
        -8.991897583007812
      ],
      [
        "▁गुन्हा",
        -8.992047309875488
      ],
      [
        "▁असले",
        -8.993185043334961
      ],
      [
        "▁देणे",
        -8.99328899383545
      ],
      [
        "f",
        -8.993924140930176
      ],
      [
        "▁विद्यार्थी",
        -8.99472427368164
      ],
      [
        "▁मिळणार",
        -8.99518871307373
      ],
      [
        "▁देण्यासाठी",
        -8.996209144592285
      ],
      [
        "▁पत्रकार",
        -8.996673583984375
      ],
      [
        "▁रोज",
        -8.99753189086914
      ],
      [
        "▁क्षेत्रात",
        -8.998719215393066
      ],
      [
        "▁चांगली",
        -8.999320030212402
      ],
      [
        "ावा",
        -9.000308990478516
      ],
      [
        "न्",
        -9.001320838928223
      ],
      [
        "B",
        -9.001642227172852
      ],
      [
        "▁सोडून",
        -9.002617835998535
      ],
      [
        "▁त्याच",
        -9.002954483032227
      ],
      [
        "▁एकदम",
        -9.004583358764648
      ],
      [
        "▁स्वप्न",
        -9.00503158569336
      ],
      [
        "▁मधील",
        -9.005139350891113
      ],
      [
        "▁लाईक",
        -9.005241394042969
      ],
      [
        "▁माग",
        -9.006662368774414
      ],
      [
        "▁संवाद",
        -9.008180618286133
      ],
      [
        "आय",
        -9.008212089538574
      ],
      [
        "णारे",
        -9.008607864379883
      ],
      [
        "ीच्या",
        -9.008682250976562
      ],
      [
        "▁वे",
        -9.008719444274902
      ],
      [
        "▁स्वतः",
        -9.009163856506348
      ],
      [
        "▁मधे",
        -9.009627342224121
      ],
      [
        "g",
        -9.010481834411621
      ],
      [
        "er",
        -9.01231575012207
      ],
      [
        "▁बांधकाम",
        -9.014636993408203
      ],
      [
        "▁पि",
        -9.014992713928223
      ],
      [
        "▁केस",
        -9.015876770019531
      ],
      [
        "वत",
        -9.016133308410645
      ],
      [
        "सर",
        -9.016582489013672
      ],
      [
        "▁डि",
        -9.017343521118164
      ],
      [
        "▁स्व",
        -9.018478393554688
      ],
      [
        "▁त",
        -9.018610954284668
      ],
      [
        "▁तुमची",
        -9.018668174743652
      ],
      [
        "▁सोबत",
        -9.018750190734863
      ],
      [
        "▁आयोजित",
        -9.019010543823242
      ],
      [
        "▁राहील",
        -9.019779205322266
      ],
      [
        "▁तयारी",
        -9.019933700561523
      ],
      [
        "वय",
        -9.020591735839844
      ],
      [
        "▁चौकशी",
        -9.02100658416748
      ],
      [
        "▁वरील",
        -9.0230712890625
      ],
      [
        "▁संस्कृती",
        -9.024235725402832
      ],
      [
        "▁सह",
        -9.02431869506836
      ],
      [
        "▁बि",
        -9.024799346923828
      ],
      [
        "▁Read",
        -9.024807929992676
      ],
      [
        "▁१३",
        -9.027331352233887
      ],
      [
        "!!",
        -9.02750301361084
      ],
      [
        "▁शि",
        -9.028017044067383
      ],
      [
        "ति",
        -9.028679847717285
      ],
      [
        "▁बाजार",
        -9.029327392578125
      ],
      [
        "▁चव्हाण",
        -9.029671669006348
      ],
      [
        "ंच",
        -9.029918670654297
      ],
      [
        "ये",
        -9.030557632446289
      ],
      [
        "खा",
        -9.03281307220459
      ],
      [
        "▁घेण्यात",
        -9.033208847045898
      ],
      [
        "▁सोलापूर",
        -9.033421516418457
      ],
      [
        "▁वाहतूक",
        -9.035781860351562
      ],
      [
        "▁पत्र",
        -9.036309242248535
      ],
      [
        "▁कायदा",
        -9.036683082580566
      ],
      [
        "ायचा",
        -9.03923225402832
      ],
      [
        "ंब",
        -9.039432525634766
      ],
      [
        "▁हेच",
        -9.039443016052246
      ],
      [
        "▁संदर्भ",
        -9.040148735046387
      ],
      [
        "▁चि",
        -9.042132377624512
      ],
      [
        "बरोबर",
        -9.042831420898438
      ],
      [
        "▁तु",
        -9.044242858886719
      ],
      [
        "▁असलेला",
        -9.044528007507324
      ],
      [
        "▁आठ",
        -9.04464340209961
      ],
      [
        "▁बघा",
        -9.04475212097168
      ],
      [
        "▁(1)",
        -9.045950889587402
      ],
      [
        "T",
        -9.046442031860352
      ],
      [
        "▁च",
        -9.046492576599121
      ],
      [
        "वार",
        -9.046670913696289
      ],
      [
        "▁१९९६",
        -9.048702239990234
      ],
      [
        "गो",
        -9.049445152282715
      ],
      [
        "द्वारे",
        -9.051300048828125
      ],
      [
        "▁खुप",
        -9.051948547363281
      ],
      [
        "देखील",
        -9.053582191467285
      ],
      [
        "▁प्रतिनिधी",
        -9.053921699523926
      ],
      [
        ".....",
        -9.053990364074707
      ],
      [
        "▁सार्वजनिक",
        -9.054149627685547
      ],
      [
        "भर",
        -9.054397583007812
      ],
      [
        "▁शरद",
        -9.05634880065918
      ],
      [
        "▁वतीने",
        -9.05684757232666
      ],
      [
        "▁जय",
        -9.057122230529785
      ],
      [
        "जि",
        -9.057302474975586
      ],
      [
        "▁विक्री",
        -9.057559967041016
      ],
      [
        "ै",
        -9.058540344238281
      ],
      [
        "▁on",
        -9.059246063232422
      ],
      [
        "▁पाहिले",
        -9.060282707214355
      ],
      [
        "▁विरोध",
        -9.061383247375488
      ],
      [
        "▁कला",
        -9.061604499816895
      ],
      [
        "▁2017",
        -9.061681747436523
      ],
      [
        "▁भावना",
        -9.061866760253906
      ],
      [
        "▁मिळाले",
        -9.06261157989502
      ],
      [
        "▁कृपया",
        -9.064486503601074
      ],
      [
        "▁News",
        -9.065973281860352
      ],
      [
        "▁पत्नी",
        -9.068500518798828
      ],
      [
        "▁अंतिम",
        -9.068553924560547
      ],
      [
        "▁अंतर्गत",
        -9.069174766540527
      ],
      [
        "▁बाल",
        -9.0693941116333
      ],
      [
        "ौ",
        -9.069697380065918
      ],
      [
        "पू",
        -9.069798469543457
      ],
      [
        "▁तुमचे",
        -9.069941520690918
      ],
      [
        "▁अहवाल",
        -9.071146965026855
      ],
      [
        "▁५०",
        -9.071510314941406
      ],
      [
        "पर",
        -9.071990013122559
      ],
      [
        "m",
        -9.073030471801758
      ],
      [
        "▁हिंदी",
        -9.073917388916016
      ],
      [
        "?\"",
        -9.074070930480957
      ],
      [
        "▁सुख",
        -9.0745210647583
      ],
      [
        "▁प्रक्रिया",
        -9.074862480163574
      ],
      [
        "ाबद्दल",
        -9.076983451843262
      ],
      [
        "▁सोशल",
        -9.077581405639648
      ],
      [
        "▁राजा",
        -9.079313278198242
      ],
      [
        "▁साखर",
        -9.079341888427734
      ],
      [
        "▁आहात",
        -9.08095932006836
      ],
      [
        "▁सतत",
        -9.081327438354492
      ],
      [
        "▁सामान्य",
        -9.08237075805664
      ],
      [
        "▁केलेली",
        -9.083096504211426
      ],
      [
        "▁ठाणे",
        -9.083331108093262
      ],
      [
        "▁शेवटी",
        -9.084193229675293
      ],
      [
        "ीकरण",
        -9.085010528564453
      ],
      [
        "▁अर्थात",
        -9.086443901062012
      ],
      [
        "ावी",
        -9.086557388305664
      ],
      [
        "हो",
        -9.08702564239502
      ],
      [
        "महाराष्ट्र",
        -9.088454246520996
      ],
      [
        "िया",
        -9.089674949645996
      ],
      [
        "▁घडामोडी",
        -9.089824676513672
      ],
      [
        "u",
        -9.090250968933105
      ],
      [
        "▁सरकारी",
        -9.091543197631836
      ],
      [
        "▁प्रचंड",
        -9.09162425994873
      ],
      [
        "maharashtra",
        -9.092016220092773
      ],
      [
        "▁कार्यालय",
        -9.092049598693848
      ],
      [
        "अर",
        -9.092339515686035
      ],
      [
        "▁न्याय",
        -9.093137741088867
      ],
      [
        "▁स्थान",
        -9.094156265258789
      ],
      [
        "▁उत्पन्न",
        -9.095678329467773
      ],
      [
        "ेश",
        -9.09878921508789
      ],
      [
        "▁सम",
        -9.099251747131348
      ],
      [
        "▁मिळाला",
        -9.099258422851562
      ],
      [
        "▁फायदा",
        -9.099899291992188
      ],
      [
        "▁सहज",
        -9.100481033325195
      ],
      [
        "▁अटी",
        -9.101340293884277
      ],
      [
        "▁झालेली",
        -9.103203773498535
      ],
      [
        "▁नव्हता",
        -9.104035377502441
      ],
      [
        "▁भा",
        -9.104780197143555
      ],
      [
        "▁निधी",
        -9.106257438659668
      ],
      [
        "▁माहित",
        -9.106298446655273
      ],
      [
        "▁भ",
        -9.106636047363281
      ],
      [
        "▁सिद्ध",
        -9.108351707458496
      ],
      [
        "▁असणार",
        -9.108748435974121
      ],
      [
        "▁ज्येष्ठ",
        -9.109119415283203
      ],
      [
        "▁बाबा",
        -9.110834121704102
      ],
      [
        "▁दूध",
        -9.110934257507324
      ],
      [
        "िल",
        -9.11093807220459
      ],
      [
        "▁साली",
        -9.111530303955078
      ],
      [
        "▁गुरु",
        -9.112076759338379
      ],
      [
        "▁देशातील",
        -9.11219596862793
      ],
      [
        "▁अपघात",
        -9.112486839294434
      ],
      [
        "लेला",
        -9.112971305847168
      ],
      [
        "▁व्या",
        -9.113179206848145
      ],
      [
        "▁काहीतरी",
        -9.113431930541992
      ],
      [
        "▁अंदाज",
        -9.113914489746094
      ],
      [
        "▁मुलांना",
        -9.114089012145996
      ],
      [
        "▁रद्द",
        -9.115159034729004
      ],
      [
        "▁नसेल",
        -9.115289688110352
      ],
      [
        "▁विद्यापीठ",
        -9.115471839904785
      ],
      [
        "▁18",
        -9.116142272949219
      ],
      [
        "▁वन",
        -9.11783218383789
      ],
      [
        "▁मध्य",
        -9.118450164794922
      ],
      [
        "▁महत्त्वाच्या",
        -9.118552207946777
      ],
      [
        "▁फुल",
        -9.119002342224121
      ],
      [
        "▁आकार",
        -9.122519493103027
      ],
      [
        "▁नक्कीच",
        -9.1231107711792
      ],
      [
        "को",
        -9.123542785644531
      ],
      [
        "▁निर्मिती",
        -9.1242094039917
      ],
      [
        "ड्या",
        -9.124383926391602
      ],
      [
        "मि",
        -9.12473201751709
      ],
      [
        "▁सचिन",
        -9.125175476074219
      ],
      [
        "▁करु",
        -9.126031875610352
      ],
      [
        "वाडी",
        -9.126075744628906
      ],
      [
        "▁भाऊ",
        -9.126490592956543
      ],
      [
        "▁झालेले",
        -9.126701354980469
      ],
      [
        "▁नाटक",
        -9.12687873840332
      ],
      [
        "राम",
        -9.127141952514648
      ],
      [
        "▁अस",
        -9.12768268585205
      ],
      [
        "▁ग्रामीण",
        -9.128292083740234
      ],
      [
        "▁तब्बल",
        -9.131519317626953
      ],
      [
        "▁घेणे",
        -9.132465362548828
      ],
      [
        "▁पर",
        -9.132774353027344
      ],
      [
        "▁लवकर",
        -9.133747100830078
      ],
      [
        "▁देवेंद्र",
        -9.134284973144531
      ],
      [
        "▁अन्न",
        -9.134346961975098
      ],
      [
        "▁दिल्या",
        -9.134383201599121
      ],
      [
        "▁उद्या",
        -9.135475158691406
      ],
      [
        "▁is",
        -9.135627746582031
      ],
      [
        "▁तपास",
        -9.135923385620117
      ],
      [
        "घ",
        -9.135963439941406
      ],
      [
        "▁तंत्रज्ञान",
        -9.136151313781738
      ],
      [
        "▁आवाहन",
        -9.136162757873535
      ],
      [
        "ीचा",
        -9.137962341308594
      ],
      [
        "▁दुसरा",
        -9.138145446777344
      ],
      [
        "▁आधार",
        -9.138421058654785
      ],
      [
        "एक",
        -9.13869571685791
      ],
      [
        "▁स्वतंत्र",
        -9.139425277709961
      ],
      [
        "वले",
        -9.140481948852539
      ],
      [
        "लि",
        -9.141214370727539
      ],
      [
        "▁खाते",
        -9.14313793182373
      ],
      [
        "1",
        -9.144721031188965
      ],
      [
        "▁नुकसान",
        -9.146079063415527
      ],
      [
        "▁स्पर्धेत",
        -9.146400451660156
      ],
      [
        "▁योग",
        -9.14710521697998
      ],
      [
        "▁याच",
        -9.148198127746582
      ],
      [
        "▁शिवसेना",
        -9.1482572555542
      ],
      [
        "ीचे",
        -9.148505210876465
      ],
      [
        "क्स",
        -9.14954662322998
      ],
      [
        "▁असल्याची",
        -9.149713516235352
      ],
      [
        "▁परिसरात",
        -9.151074409484863
      ],
      [
        "ed",
        -9.1516752243042
      ],
      [
        "भा",
        -9.152284622192383
      ],
      [
        "▁पिक",
        -9.155055046081543
      ],
      [
        "▁राजकारण",
        -9.155141830444336
      ],
      [
        "▁मुलगा",
        -9.156120300292969
      ],
      [
        "▁एकाच",
        -9.156652450561523
      ],
      [
        "b",
        -9.15710163116455
      ],
      [
        "▁शिवाय",
        -9.159502983093262
      ],
      [
        "▁देणार",
        -9.159791946411133
      ],
      [
        "▁आमचे",
        -9.159958839416504
      ],
      [
        "▁ऑनलाईन",
        -9.160289764404297
      ],
      [
        "िका",
        -9.160625457763672
      ],
      [
        "ीन",
        -9.1616792678833
      ],
      [
        "▁शिक",
        -9.162103652954102
      ],
      [
        "▁Home",
        -9.162500381469727
      ],
      [
        "००",
        -9.16257095336914
      ],
      [
        "I",
        -9.163329124450684
      ],
      [
        "▁लोकप्रिय",
        -9.163911819458008
      ],
      [
        "▁नव्हती",
        -9.165083885192871
      ],
      [
        "▁घटक",
        -9.16569995880127
      ],
      [
        "▁प्रति",
        -9.16572380065918
      ],
      [
        "▁शहरातील",
        -9.165907859802246
      ],
      [
        "▁पद्धतीने",
        -9.16647720336914
      ],
      [
        "गे",
        -9.166699409484863
      ],
      [
        "▁सामायिक",
        -9.166838645935059
      ],
      [
        "▁२४",
        -9.166852951049805
      ],
      [
        "▁कळ",
        -9.167988777160645
      ],
      [
        "▁पहिले",
        -9.169171333312988
      ],
      [
        "ेशन",
        -9.169252395629883
      ],
      [
        "▁बघ",
        -9.170670509338379
      ],
      [
        "नाथ",
        -9.171051025390625
      ],
      [
        "तर",
        -9.171135902404785
      ],
      [
        "▁कल्याण",
        -9.172075271606445
      ],
      [
        "▁कुणी",
        -9.174713134765625
      ],
      [
        "▁शैक्षणिक",
        -9.175118446350098
      ],
      [
        "▁बाकी",
        -9.175397872924805
      ],
      [
        "▁दुवे",
        -9.176597595214844
      ],
      [
        "▁प्रशिक्षण",
        -9.177053451538086
      ],
      [
        "▁पडला",
        -9.177460670471191
      ],
      [
        "▁तक्रार",
        -9.17757511138916
      ],
      [
        "विषयी",
        -9.178449630737305
      ],
      [
        "▁झाड",
        -9.178901672363281
      ],
      [
        "an",
        -9.179216384887695
      ],
      [
        "▁साजरा",
        -9.180118560791016
      ],
      [
        "▁जबाबदारी",
        -9.180628776550293
      ],
      [
        "▁घेता",
        -9.180843353271484
      ],
      [
        "दी",
        -9.181197166442871
      ],
      [
        "▁गोड",
        -9.181768417358398
      ],
      [
        "▁आमचा",
        -9.182352066040039
      ],
      [
        "▁महिन्यात",
        -9.182394027709961
      ],
      [
        "▁यु",
        -9.18448543548584
      ],
      [
        "▁पो",
        -9.184860229492188
      ],
      [
        "ळा",
        -9.184892654418945
      ],
      [
        "▁लागत",
        -9.185306549072266
      ],
      [
        "ांकडून",
        -9.185338973999023
      ],
      [
        "▁अहमदनगर",
        -9.185440063476562
      ],
      [
        "▁उभे",
        -9.18610954284668
      ],
      [
        "वाद",
        -9.187542915344238
      ],
      [
        "जन",
        -9.187768936157227
      ],
      [
        "ाय",
        -9.187990188598633
      ],
      [
        "▁नव",
        -9.188036918640137
      ],
      [
        "▁टीम",
        -9.188268661499023
      ],
      [
        "▁स्वातंत्र्य",
        -9.189973831176758
      ],
      [
        "▁अपेक्षा",
        -9.190262794494629
      ],
      [
        "▁वातावरण",
        -9.19226360321045
      ],
      [
        "▁of",
        -9.192367553710938
      ],
      [
        "▁प्रश्‍न",
        -9.19260311126709
      ],
      [
        "▁कामे",
        -9.193094253540039
      ],
      [
        "्यु",
        -9.1934175491333
      ],
      [
        "▁झालेला",
        -9.194181442260742
      ],
      [
        "▁वाईट",
        -9.194321632385254
      ],
      [
        "▁म्हणत",
        -9.195322036743164
      ],
      [
        "समोर",
        -9.197019577026367
      ],
      [
        "▁व्यवस्थापन",
        -9.197028160095215
      ],
      [
        "▁करायचे",
        -9.19763469696045
      ],
      [
        "=",
        -9.199419021606445
      ],
      [
        "▁जोशी",
        -9.199676513671875
      ],
      [
        "▁पात्र",
        -9.199792861938477
      ],
      [
        "▁मुलगी",
        -9.200826644897461
      ],
      [
        "▁नवा",
        -9.2020845413208
      ],
      [
        "▁प्रकरण",
        -9.202085494995117
      ],
      [
        "▁म्हणतो",
        -9.202386856079102
      ],
      [
        "▁वाटतं",
        -9.20311164855957
      ],
      [
        "▁24",
        -9.203492164611816
      ],
      [
        "▁विमान",
        -9.2041654586792
      ],
      [
        "▁दिसून",
        -9.204246520996094
      ],
      [
        "▁नसते",
        -9.20486068725586
      ],
      [
        "ing",
        -9.205002784729004
      ],
      [
        "▁सगळं",
        -9.205047607421875
      ],
      [
        "▁अरे",
        -9.205323219299316
      ],
      [
        "p",
        -9.205599784851074
      ],
      [
        "रु",
        -9.206071853637695
      ],
      [
        "▁जखमी",
        -9.206446647644043
      ],
      [
        "▁शरीर",
        -9.206758499145508
      ],
      [
        "▁आग",
        -9.207185745239258
      ],
      [
        "▁खरं",
        -9.2074556350708
      ],
      [
        "▁मुली",
        -9.2085599899292
      ],
      [
        "▁आभार",
        -9.20884895324707
      ],
      [
        "▁मुंबईत",
        -9.209729194641113
      ],
      [
        "▁होणे",
        -9.209888458251953
      ],
      [
        "4",
        -9.209985733032227
      ],
      [
        "▁लि",
        -9.211329460144043
      ],
      [
        "ॉ",
        -9.211543083190918
      ],
      [
        "ाळ",
        -9.214162826538086
      ],
      [
        "▁असल्यामुळे",
        -9.214412689208984
      ],
      [
        "▁फ",
        -9.215598106384277
      ],
      [
        "▁मार्गदर्शन",
        -9.217791557312012
      ],
      [
        "ँ",
        -9.218852043151855
      ],
      [
        "▁पाकिस्तान",
        -9.21901798248291
      ],
      [
        "▁समजून",
        -9.219454765319824
      ],
      [
        "▁१००",
        -9.22049617767334
      ],
      [
        "▁सांग",
        -9.222526550292969
      ],
      [
        "▁कदाचित",
        -9.223727226257324
      ],
      [
        "▁मिळते",
        -9.223841667175293
      ],
      [
        "▁पहिली",
        -9.224174499511719
      ],
      [
        "▁भारतातील",
        -9.22420883178711
      ],
      [
        "▁वेगवेगळ्या",
        -9.224417686462402
      ],
      [
        "▁रक्कम",
        -9.225869178771973
      ],
      [
        "▁ड",
        -9.226306915283203
      ],
      [
        "▁बंदी",
        -9.226984024047852
      ],
      [
        "पि",
        -9.2274751663208
      ],
      [
        "▁माध्यम",
        -9.22807788848877
      ],
      [
        "हून",
        -9.229100227355957
      ],
      [
        "▁तोंड",
        -9.22923755645752
      ],
      [
        "जवळ",
        -9.22945499420166
      ],
      [
        "▁डाउनलोड",
        -9.22955322265625
      ],
      [
        "▁एकच",
        -9.230112075805664
      ],
      [
        "▁बाळ",
        -9.231120109558105
      ],
      [
        "▁झाल्यावर",
        -9.231474876403809
      ],
      [
        "▁केलेला",
        -9.232023239135742
      ],
      [
        "▁मागील",
        -9.23220157623291
      ],
      [
        "सारखे",
        -9.232206344604492
      ],
      [
        "▁वाढत",
        -9.23229694366455
      ],
      [
        "▁परवानगी",
        -9.23271656036377
      ],
      [
        "ेन",
        -9.23330307006836
      ],
      [
        "▁अचानक",
        -9.234053611755371
      ],
      [
        "▁जमा",
        -9.234796524047852
      ],
      [
        "▁जळगाव",
        -9.235292434692383
      ],
      [
        "▁त्यातून",
        -9.235312461853027
      ],
      [
        "कु",
        -9.235637664794922
      ],
      [
        "▁घेऊ",
        -9.237661361694336
      ],
      [
        "▁प्रकारे",
        -9.237871170043945
      ],
      [
        "3",
        -9.238914489746094
      ],
      [
        "▁हातात",
        -9.239029884338379
      ],
      [
        "▁!!",
        -9.239330291748047
      ],
      [
        "▁गणपती",
        -9.239456176757812
      ],
      [
        "िन",
        -9.239996910095215
      ],
      [
        "▁संचालक",
        -9.24077033996582
      ],
      [
        "गड",
        -9.240866661071777
      ],
      [
        "▁G",
        -9.241617202758789
      ],
      [
        "▁वाहन",
        -9.241683959960938
      ],
      [
        "▁टीका",
        -9.242533683776855
      ],
      [
        "▁रक्त",
        -9.242609024047852
      ],
      [
        "▁लाल",
        -9.242691993713379
      ],
      [
        "▁अंग",
        -9.2431058883667
      ],
      [
        "▁फुट",
        -9.244036674499512
      ],
      [
        "▁संरक्षण",
        -9.24476146697998
      ],
      [
        "▁बो",
        -9.245376586914062
      ],
      [
        "पुणे",
        -9.24601936340332
      ],
      [
        "▁ठेवून",
        -9.247045516967773
      ],
      [
        "▁शोधा",
        -9.247801780700684
      ],
      [
        "▁आयोजन",
        -9.249161720275879
      ],
      [
        "▁रस्ता",
        -9.249388694763184
      ],
      [
        "▁न्यायालयाने",
        -9.249712944030762
      ],
      [
        "▁थोडे",
        -9.250054359436035
      ],
      [
        "l",
        -9.250757217407227
      ],
      [
        "▁पद",
        -9.251590728759766
      ],
      [
        "▁आत्महत्या",
        -9.252304077148438
      ],
      [
        "स्त",
        -9.252469062805176
      ],
      [
        "▁उमेदवार",
        -9.252663612365723
      ],
      [
        "▁मोफत",
        -9.253349304199219
      ],
      [
        "▁फरक",
        -9.253873825073242
      ],
      [
        "or",
        -9.25406551361084
      ],
      [
        "▁होणाऱ्या",
        -9.254504203796387
      ],
      [
        "▁मतदान",
        -9.25606632232666
      ],
      [
        "org",
        -9.257265090942383
      ],
      [
        "▁सत्ता",
        -9.257864952087402
      ],
      [
        "▁काहीही",
        -9.258118629455566
      ],
      [
        "▁करणारा",
        -9.258173942565918
      ],
      [
        "व्ही",
        -9.258655548095703
      ],
      [
        "भाग",
        -9.258720397949219
      ],
      [
        "▁शासन",
        -9.259112358093262
      ],
      [
        "▁मुले",
        -9.259135246276855
      ],
      [
        "▁&",
        -9.259708404541016
      ],
      [
        "▁नंबर",
        -9.259763717651367
      ],
      [
        "▁नागरिक",
        -9.260552406311035
      ],
      [
        "▁ग्राहक",
        -9.261467933654785
      ],
      [
        "▁पूर्वी",
        -9.26207160949707
      ],
      [
        "▁जाधव",
        -9.262118339538574
      ],
      [
        "▁आलेले",
        -9.262666702270508
      ],
      [
        "▁येत्या",
        -9.263118743896484
      ],
      [
        "▁आयुक्त",
        -9.263652801513672
      ],
      [
        "▁राहणार",
        -9.264266967773438
      ],
      [
        "▁माझं",
        -9.264625549316406
      ],
      [
        "▁जगात",
        -9.264772415161133
      ],
      [
        "ॅ",
        -9.2658052444458
      ],
      [
        "ानुसार",
        -9.266730308532715
      ],
      [
        "▁=",
        -9.267022132873535
      ],
      [
        "▁२१",
        -9.267921447753906
      ],
      [
        "▁More",
        -9.26794147491455
      ],
      [
        "▁पट",
        -9.268162727355957
      ],
      [
        "▁होण्याची",
        -9.268558502197266
      ],
      [
        "ांशी",
        -9.268701553344727
      ],
      [
        "▁लागतो",
        -9.269646644592285
      ],
      [
        "▁लगेच",
        -9.26987075805664
      ],
      [
        "N",
        -9.272167205810547
      ],
      [
        "▁विज्ञान",
        -9.272764205932617
      ],
      [
        "ri",
        -9.273324966430664
      ],
      [
        "▁आजचे",
        -9.273478507995605
      ],
      [
        "▁दुपारी",
        -9.273963928222656
      ],
      [
        "▁अजूनही",
        -9.275359153747559
      ],
      [
        "र्‍या",
        -9.275516510009766
      ],
      [
        "▁पाहा",
        -9.27634334564209
      ],
      [
        "▁मजकूर",
        -9.277923583984375
      ],
      [
        "क्ष",
        -9.278517723083496
      ],
      [
        "▁से",
        -9.278586387634277
      ],
      [
        "त्र",
        -9.279197692871094
      ],
      [
        "▁जाती",
        -9.279961585998535
      ],
      [
        "▁चांगल्या",
        -9.28027629852295
      ],
      [
        "le",
        -9.28042984008789
      ],
      [
        "▁मान्य",
        -9.280458450317383
      ],
      [
        "▁मार",
        -9.280660629272461
      ],
      [
        "१०",
        -9.280874252319336
      ],
      [
        "ऊ",
        -9.281505584716797
      ],
      [
        "▁;",
        -9.281686782836914
      ],
      [
        "▁घेण्यासाठी",
        -9.281813621520996
      ],
      [
        "▁महाराष्ट्रातील",
        -9.285969734191895
      ],
      [
        "▁बाजूला",
        -9.286307334899902
      ],
      [
        "▁लावून",
        -9.286894798278809
      ],
      [
        "▁येतील",
        -9.286947250366211
      ],
      [
        "संपादन",
        -9.287297248840332
      ],
      [
        "म्",
        -9.288980484008789
      ],
      [
        "रि",
        -9.289958953857422
      ],
      [
        "▁काहीच",
        -9.290804862976074
      ],
      [
        "▁कसं",
        -9.291810989379883
      ],
      [
        "▁अभिनेत्री",
        -9.292089462280273
      ],
      [
        "▁शाळेत",
        -9.29212474822998
      ],
      [
        "शील",
        -9.292131423950195
      ],
      [
        "▁उतर",
        -9.293073654174805
      ],
      [
        "▁वजन",
        -9.29371452331543
      ],
      [
        "▁अखेर",
        -9.294313430786133
      ],
      [
        "▁मुक्त",
        -9.294757843017578
      ],
      [
        "▁जेवण",
        -9.29523754119873
      ],
      [
        "▁आठवण",
        -9.2953519821167
      ],
      [
        "▁इत्यादी",
        -9.295854568481445
      ],
      [
        "१८",
        -9.296673774719238
      ],
      [
        "▁सर्वोच्च",
        -9.297889709472656
      ],
      [
        "▁माहीत",
        -9.299149513244629
      ],
      [
        "▁25",
        -9.299613952636719
      ],
      [
        "▁महाराष्ट्रात",
        -9.299641609191895
      ],
      [
        "▁रस्त्यावर",
        -9.300497055053711
      ],
      [
        "▁गेलो",
        -9.300566673278809
      ],
      [
        "▁तळ",
        -9.302750587463379
      ],
      [
        "▁•",
        -9.302831649780273
      ],
      [
        "▁देशमुख",
        -9.304194450378418
      ],
      [
        "मराठी",
        -9.304441452026367
      ],
      [
        "पद",
        -9.304777145385742
      ],
      [
        "▁You",
        -9.305341720581055
      ],
      [
        "▁जोड",
        -9.305691719055176
      ],
      [
        "आर",
        -9.305758476257324
      ],
      [
        "▁दर्शन",
        -9.306129455566406
      ],
      [
        "0",
        -9.30729866027832
      ],
      [
        "▁वर्षात",
        -9.307412147521973
      ],
      [
        "▁s",
        -9.308815002441406
      ],
      [
        "सारख्या",
        -9.309760093688965
      ],
      [
        "▁प्रस्ताव",
        -9.3098726272583
      ],
      [
        "एम",
        -9.311135292053223
      ],
      [
        "▁सांगली",
        -9.312773704528809
      ],
      [
        "कि",
        -9.31308364868164
      ],
      [
        "▁कार्ड",
        -9.313313484191895
      ],
      [
        "▁वय",
        -9.314172744750977
      ],
      [
        "▁अन्",
        -9.314790725708008
      ],
      [
        "नो",
        -9.316219329833984
      ],
      [
        "▁सभासद",
        -9.316368103027344
      ],
      [
        "▁शे",
        -9.316473960876465
      ],
      [
        "▁तालुक्यातील",
        -9.317038536071777
      ],
      [
        "ासह",
        -9.317292213439941
      ],
      [
        "▁सुरक्षा",
        -9.31765365600586
      ],
      [
        "▁यामध्ये",
        -9.31767463684082
      ],
      [
        "▁वाटले",
        -9.318161010742188
      ],
      [
        "▁पोट",
        -9.318885803222656
      ],
      [
        "वली",
        -9.319387435913086
      ],
      [
        "ाई",
        -9.31977653503418
      ],
      [
        "▁विधानसभा",
        -9.320154190063477
      ],
      [
        "▁स्थिती",
        -9.320805549621582
      ],
      [
        "▁हर",
        -9.321035385131836
      ],
      [
        "▁आठवणी",
        -9.321404457092285
      ],
      [
        "▁काळा",
        -9.322182655334473
      ],
      [
        "▁सातारा",
        -9.322816848754883
      ],
      [
        "▁नसल्याने",
        -9.322854995727539
      ],
      [
        "णारा",
        -9.32643985748291
      ],
      [
        "▁चीन",
        -9.327323913574219
      ],
      [
        "▁जुन्या",
        -9.327615737915039
      ],
      [
        "▁प्रयोग",
        -9.327960014343262
      ],
      [
        "▁प्रभातचे",
        -9.32798957824707
      ],
      [
        "▁स्थापन",
        -9.328532218933105
      ],
      [
        "▁विनंती",
        -9.330231666564941
      ],
      [
        "▁उल्लेख",
        -9.331891059875488
      ],
      [
        "▁article",
        -9.333006858825684
      ],
      [
        "▁पे",
        -9.334146499633789
      ],
      [
        "▁याचे",
        -9.3351411819458
      ],
      [
        "2",
        -9.335328102111816
      ],
      [
        "▁बाबासाहेब",
        -9.335955619812012
      ],
      [
        "▁किमान",
        -9.33653736114502
      ],
      [
        "▁कुमार",
        -9.337294578552246
      ],
      [
        "▁बरेच",
        -9.33747673034668
      ],
      [
        "णार्‍या",
        -9.338140487670898
      ],
      [
        "▁यंदा",
        -9.338371276855469
      ],
      [
        "पे",
        -9.338907241821289
      ],
      [
        "▁त्यावेळी",
        -9.33955192565918
      ],
      [
        "मु",
        -9.339638710021973
      ],
      [
        "२०",
        -9.339850425720215
      ],
      [
        "▁नोंदणी",
        -9.340413093566895
      ],
      [
        "शि",
        -9.340561866760254
      ],
      [
        "h",
        -9.340936660766602
      ],
      [
        "▁T",
        -9.341983795166016
      ],
      [
        "▁सदर",
        -9.341983795166016
      ],
      [
        "▁प्रकाशित",
        -9.342187881469727
      ],
      [
        "▁असला",
        -9.342448234558105
      ],
      [
        "▁are",
        -9.343151092529297
      ],
      [
        "▁निधन",
        -9.343343734741211
      ],
      [
        "00",
        -9.344315528869629
      ],
      [
        "▁चहा",
        -9.345307350158691
      ],
      [
        "▁करायची",
        -9.345515251159668
      ],
      [
        "िश",
        -9.345611572265625
      ],
      [
        "en",
        -9.346028327941895
      ],
      [
        "▁14",
        -9.346161842346191
      ],
      [
        "▁क्षण",
        -9.347694396972656
      ],
      [
        "▁दिसते",
        -9.347831726074219
      ],
      [
        "मेल",
        -9.347875595092773
      ],
      [
        "मधे",
        -9.347920417785645
      ],
      [
        "▁सौ",
        -9.347976684570312
      ],
      [
        "▁क्रीडा",
        -9.348334312438965
      ],
      [
        "▁मिळवा",
        -9.34876823425293
      ],
      [
        "▁संघटना",
        -9.34926700592041
      ],
      [
        "▁लागणार",
        -9.3497314453125
      ],
      [
        "▁वीज",
        -9.349787712097168
      ],
      [
        "ar",
        -9.350252151489258
      ],
      [
        "ळ्या",
        -9.351365089416504
      ],
      [
        "▁आवृत्ती",
        -9.353740692138672
      ],
      [
        "गर",
        -9.354555130004883
      ],
      [
        "▁अशोक",
        -9.354562759399414
      ],
      [
        "▁म्हण",
        -9.35496997833252
      ],
      [
        "दे",
        -9.35534954071045
      ],
      [
        "▁नदी",
        -9.356306076049805
      ],
      [
        "३०",
        -9.356579780578613
      ],
      [
        "▁संदेश",
        -9.356797218322754
      ],
      [
        "▁युद्ध",
        -9.357446670532227
      ],
      [
        "▁न्यूज",
        -9.357462882995605
      ],
      [
        "▁चंद्र",
        -9.357699394226074
      ],
      [
        "▁शेतकऱ्यांना",
        -9.35816764831543
      ],
      [
        "▁प्रत्यक्ष",
        -9.35841178894043
      ],
      [
        "▁F",
        -9.359606742858887
      ],
      [
        "▁विश्व",
        -9.360429763793945
      ],
      [
        "▁डोळे",
        -9.362213134765625
      ],
      [
        "▁नियोजन",
        -9.363377571105957
      ],
      [
        "▁२०१२",
        -9.364095687866211
      ],
      [
        "▁आजच्या",
        -9.364175796508789
      ],
      [
        "▁हस्ते",
        -9.364694595336914
      ],
      [
        "ीने",
        -9.364775657653809
      ],
      [
        "▁ः",
        -9.364838600158691
      ],
      [
        "▁फुले",
        -9.36623764038086
      ],
      [
        "▁ठिकाण",
        -9.366467475891113
      ],
      [
        "▁आमची",
        -9.367409706115723
      ],
      [
        "▁वैयक्तिक",
        -9.36769962310791
      ],
      [
        "▁नियंत्रण",
        -9.36813735961914
      ],
      [
        "▁गर्दी",
        -9.369241714477539
      ],
      [
        "पो",
        -9.36959171295166
      ],
      [
        "▁तसा",
        -9.369935989379883
      ],
      [
        "▁वाचून",
        -9.37010383605957
      ],
      [
        "▁येणाऱ्या",
        -9.370279312133789
      ],
      [
        "▁‘‘",
        -9.370365142822266
      ],
      [
        "▁२२",
        -9.370959281921387
      ],
      [
        "E",
        -9.371088981628418
      ],
      [
        "▁आजार",
        -9.371232032775879
      ],
      [
        "▁30",
        -9.371234893798828
      ],
      [
        "▁रस",
        -9.371280670166016
      ],
      [
        "ानी",
        -9.37192440032959
      ],
      [
        "▁चढ",
        -9.3725004196167
      ],
      [
        "▁वाचक",
        -9.372776985168457
      ],
      [
        "▁ऐक",
        -9.373259544372559
      ],
      [
        "▁धाव",
        -9.3735933303833
      ],
      [
        "▁तपासणी",
        -9.373797416687012
      ],
      [
        "▁जल",
        -9.37413501739502
      ],
      [
        "श्री",
        -9.374263763427734
      ],
      [
        "▁मोर्चा",
        -9.374321937561035
      ],
      [
        "▁कॅ",
        -9.374412536621094
      ],
      [
        "▁रहा",
        -9.374983787536621
      ],
      [
        "▁चुक",
        -9.375280380249023
      ],
      [
        "▁व्यवस्था",
        -9.376045227050781
      ],
      [
        "▁डिजिटल",
        -9.376062393188477
      ],
      [
        "▁बैठक",
        -9.376821517944336
      ],
      [
        "▁अप",
        -9.377138137817383
      ],
      [
        "▁माल",
        -9.377554893493652
      ],
      [
        "▁ठरव",
        -9.377782821655273
      ],
      [
        "▁सांगत",
        -9.37829875946045
      ],
      [
        "▁गावात",
        -9.378597259521484
      ],
      [
        "ढ",
        -9.379118919372559
      ],
      [
        "▁नगरसेवक",
        -9.37929630279541
      ],
      [
        "़",
        -9.37988567352295
      ],
      [
        "▁म्हणजेच",
        -9.380008697509766
      ],
      [
        "▁कर्मचारी",
        -9.380186080932617
      ],
      [
        "▁ध",
        -9.380602836608887
      ],
      [
        "▁शांत",
        -9.381762504577637
      ],
      [
        "ंदा",
        -9.382019996643066
      ],
      [
        "▁नाहीये",
        -9.382278442382812
      ],
      [
        "▁मंडळी",
        -9.382389068603516
      ],
      [
        "▁आहेस",
        -9.383159637451172
      ],
      [
        "▁मते",
        -9.38484001159668
      ],
      [
        "ल्यावर",
        -9.385321617126465
      ],
      [
        "▁इन",
        -9.38560676574707
      ],
      [
        "ंज",
        -9.385963439941406
      ],
      [
        "▁जगातील",
        -9.386201858520508
      ],
      [
        "▁सांगा",
        -9.38686752319336
      ],
      [
        "ाकडून",
        -9.387140274047852
      ],
      [
        "▁W",
        -9.387297630310059
      ],
      [
        "▁N",
        -9.387798309326172
      ],
      [
        "▁जरी",
        -9.387813568115234
      ],
      [
        "▁D",
        -9.388561248779297
      ],
      [
        "कॉम",
        -9.389737129211426
      ],
      [
        "शिवाय",
        -9.390883445739746
      ],
      [
        "ार",
        -9.39127254486084
      ],
      [
        "▁सरकारला",
        -9.39211368560791
      ],
      [
        "▁रोग",
        -9.393045425415039
      ],
      [
        "ावरून",
        -9.39311695098877
      ],
      [
        "▁असेही",
        -9.39322566986084
      ],
      [
        "टर",
        -9.394331932067871
      ],
      [
        "ाव",
        -9.39466381072998
      ],
      [
        "▁तिचा",
        -9.39466381072998
      ],
      [
        "▁प्रशासन",
        -9.394680976867676
      ],
      [
        "▁शकेल",
        -9.395039558410645
      ],
      [
        "णारी",
        -9.396748542785645
      ],
      [
        "▁छत्रपती",
        -9.39688491821289
      ],
      [
        "▁औषध",
        -9.396889686584473
      ],
      [
        "▁ठार",
        -9.39733600616455
      ],
      [
        "▁a",
        -9.3983793258667
      ],
      [
        "ेश्वर",
        -9.398458480834961
      ],
      [
        "बे",
        -9.399834632873535
      ],
      [
        "▁पुण्यात",
        -9.40013313293457
      ],
      [
        "तु",
        -9.400139808654785
      ],
      [
        "▁पैसा",
        -9.400156021118164
      ],
      [
        "▁किलो",
        -9.400583267211914
      ],
      [
        "▁निसर्ग",
        -9.400919914245605
      ],
      [
        "▁टाक",
        -9.401204109191895
      ],
      [
        "▁मुख्यपृष्ठ",
        -9.401366233825684
      ],
      [
        "▁विस्तार",
        -9.401774406433105
      ],
      [
        "▁कोकण",
        -9.402727127075195
      ],
      [
        "▁सुरवात",
        -9.404574394226074
      ],
      [
        "▁here",
        -9.404641151428223
      ],
      [
        "प्रभात",
        -9.405323028564453
      ],
      [
        "▁फळ",
        -9.405339241027832
      ],
      [
        "▁रोड",
        -9.40545654296875
      ],
      [
        "▁गा",
        -9.405754089355469
      ],
      [
        "▁राहिले",
        -9.407050132751465
      ],
      [
        "▁बाबतीत",
        -9.407618522644043
      ],
      [
        "G",
        -9.407723426818848
      ],
      [
        "▁जमीन",
        -9.408825874328613
      ],
      [
        "▁India",
        -9.409248352050781
      ],
      [
        "▁कृती",
        -9.409303665161133
      ],
      [
        "६",
        -9.409523963928223
      ],
      [
        "▁16",
        -9.40961742401123
      ],
      [
        "▁पाहता",
        -9.409828186035156
      ],
      [
        "5",
        -9.410284996032715
      ],
      [
        "पट",
        -9.41099739074707
      ],
      [
        "▁व्यावसायिक",
        -9.41273307800293
      ],
      [
        "▁वाक्य",
        -9.412775039672852
      ],
      [
        "▁सन",
        -9.413167953491211
      ],
      [
        "▁झाल्यानंतर",
        -9.41322135925293
      ],
      [
        "▁स्वच्छ",
        -9.413919448852539
      ],
      [
        "ल्याने",
        -9.414042472839355
      ],
      [
        "▁लांब",
        -9.414389610290527
      ],
      [
        "स्थ",
        -9.415190696716309
      ],
      [
        "▁करार",
        -9.415637016296387
      ],
      [
        "क्या",
        -9.416072845458984
      ],
      [
        "▁जन",
        -9.416182518005371
      ],
      [
        "▁सरकारच्या",
        -9.416379928588867
      ],
      [
        "▁असावा",
        -9.417279243469238
      ],
      [
        "?”",
        -9.418477058410645
      ],
      [
        "▁सहकारी",
        -9.420202255249023
      ],
      [
        "▁:-",
        -9.420446395874023
      ],
      [
        "्र",
        -9.421996116638184
      ],
      [
        "▁य",
        -9.422806739807129
      ],
      [
        "▁सूर्य",
        -9.423200607299805
      ],
      [
        "▁सुरक्षित",
        -9.423629760742188
      ],
      [
        "▁देतो",
        -9.425222396850586
      ],
      [
        "F",
        -9.425817489624023
      ],
      [
        "गी",
        -9.425825119018555
      ],
      [
        "▁असल्याचा",
        -9.425843238830566
      ],
      [
        "ूर",
        -9.425997734069824
      ],
      [
        "▁पालक",
        -9.426946640014648
      ],
      [
        "▁शक्ती",
        -9.4273681640625
      ],
      [
        "▁हु",
        -9.428292274475098
      ],
      [
        "▁जवळपास",
        -9.429139137268066
      ],
      [
        "सो",
        -9.429211616516113
      ],
      [
        "▁संयुक्त",
        -9.429328918457031
      ],
      [
        "▁आशा",
        -9.429749488830566
      ],
      [
        "पत्र",
        -9.429766654968262
      ],
      [
        "▁समज",
        -9.42978286743164
      ],
      [
        "▁नजर",
        -9.430802345275879
      ],
      [
        "▁प्रकारच्या",
        -9.431865692138672
      ],
      [
        "▁तेच",
        -9.432296752929688
      ],
      [
        "▁असली",
        -9.432775497436523
      ],
      [
        "▁उलट",
        -9.434443473815918
      ],
      [
        "▁मायबोली",
        -9.434886932373047
      ],
      [
        "▁वर्णन",
        -9.434913635253906
      ],
      [
        "▁वैद्यकीय",
        -9.435806274414062
      ],
      [
        "▁कसोटी",
        -9.435897827148438
      ],
      [
        "्‍",
        -9.436254501342773
      ],
      [
        "मला",
        -9.436766624450684
      ],
      [
        "देव",
        -9.436771392822266
      ],
      [
        "०",
        -9.437170028686523
      ],
      [
        "▁होतील",
        -9.437638282775879
      ],
      [
        "▁पडले",
        -9.438324928283691
      ],
      [
        "▁पर्यावरण",
        -9.438329696655273
      ],
      [
        "▁कोड",
        -9.438815116882324
      ],
      [
        "▁करण्याच्या",
        -9.440120697021484
      ],
      [
        "▁बाब",
        -9.440299034118652
      ],
      [
        "▁२०१५",
        -9.440801620483398
      ],
      [
        "▁महाविद्यालय",
        -9.440804481506348
      ],
      [
        "▁शिर",
        -9.440818786621094
      ],
      [
        "▁हाती",
        -9.441033363342285
      ],
      [
        "▁कधीच",
        -9.441374778747559
      ],
      [
        "▁कप",
        -9.443233489990234
      ],
      [
        "▁आवड",
        -9.443305969238281
      ],
      [
        "▁वाटलं",
        -9.445394515991211
      ],
      [
        "th",
        -9.445636749267578
      ],
      [
        "▁पाड",
        -9.446736335754395
      ],
      [
        "▁कशा",
        -9.44711971282959
      ],
      [
        "▁आयुष्यात",
        -9.447525024414062
      ],
      [
        "▁आतापर्यंत",
        -9.447525978088379
      ],
      [
        "▁नावे",
        -9.447526931762695
      ],
      [
        "▁आव्हान",
        -9.448223114013672
      ],
      [
        "▁ठळक",
        -9.448742866516113
      ],
      [
        "▁दिनांक",
        -9.449398040771484
      ],
      [
        "मेंट",
        -9.449403762817383
      ],
      [
        "तर्फे",
        -9.449623107910156
      ],
      [
        "▁अंतर",
        -9.450013160705566
      ],
      [
        "▁झ",
        -9.450697898864746
      ],
      [
        "▁विनोद",
        -9.45128059387207
      ],
      [
        "▁उत्तरे",
        -9.45143985748291
      ],
      [
        "▁करायचा",
        -9.451661109924316
      ],
      [
        "▁एन",
        -9.453120231628418
      ],
      [
        "ष्ट",
        -9.454026222229004
      ],
      [
        "L",
        -9.454195976257324
      ],
      [
        "▁तुझी",
        -9.454461097717285
      ],
      [
        "▁शासकीय",
        -9.454496383666992
      ],
      [
        "▁पद्धती",
        -9.455476760864258
      ],
      [
        "▁भारताच्या",
        -9.455850601196289
      ],
      [
        "ण्याचे",
        -9.455973625183105
      ],
      [
        "▁ठेवले",
        -9.456316947937012
      ],
      [
        "▁सहभाग",
        -9.456460952758789
      ],
      [
        "▁क्षेत्रातील",
        -9.456587791442871
      ],
      [
        "▁करण्या",
        -9.456974029541016
      ],
      [
        "▁L",
        -9.457080841064453
      ],
      [
        "▁वृत्त",
        -9.460073471069336
      ],
      [
        "▁विद्यार्थ्यांना",
        -9.460515975952148
      ],
      [
        "▁गरम",
        -9.461739540100098
      ],
      [
        "ांचं",
        -9.461747169494629
      ],
      [
        "▁पड",
        -9.461936950683594
      ],
      [
        "▁भीती",
        -9.462089538574219
      ],
      [
        "▁प्रकाशन",
        -9.462178230285645
      ],
      [
        "▁दृष्टीने",
        -9.464075088500977
      ],
      [
        "▁आलो",
        -9.464289665222168
      ],
      [
        "▁कामगिरी",
        -9.465164184570312
      ],
      [
        "▁चाल",
        -9.465191841125488
      ],
      [
        "▁अडचणी",
        -9.465420722961426
      ],
      [
        "▁कॉलेज",
        -9.465559959411621
      ],
      [
        "▁मुद्दा",
        -9.467787742614746
      ],
      [
        "▁जनता",
        -9.468927383422852
      ],
      [
        "▁विरोधी",
        -9.469182014465332
      ],
      [
        "ad",
        -9.470097541809082
      ],
      [
        "▁आजही",
        -9.47041130065918
      ],
      [
        "▁थोडा",
        -9.471189498901367
      ],
      [
        "▁इतके",
        -9.471232414245605
      ],
      [
        "ांकडे",
        -9.471514701843262
      ],
      [
        "▁लिंक",
        -9.471587181091309
      ],
      [
        "▁कुलकर्णी",
        -9.471665382385254
      ],
      [
        "▁झाल्याने",
        -9.472655296325684
      ],
      [
        "▁लोकसभा",
        -9.472977638244629
      ],
      [
        "एल",
        -9.473203659057617
      ],
      [
        "▁याला",
        -9.47324275970459
      ],
      [
        "▁रविवारी",
        -9.473309516906738
      ],
      [
        "▁आघाडी",
        -9.4735746383667
      ],
      [
        "▁13",
        -9.474139213562012
      ],
      [
        "▁होय",
        -9.474681854248047
      ],
      [
        "०००",
        -9.47468376159668
      ],
      [
        "▁बु",
        -9.474907875061035
      ],
      [
        "ीची",
        -9.475305557250977
      ],
      [
        "रण",
        -9.476164817810059
      ],
      [
        "स्व",
        -9.47652530670166
      ],
      [
        "▁देता",
        -9.477123260498047
      ],
      [
        "▁तिचे",
        -9.477275848388672
      ],
      [
        "R",
        -9.477343559265137
      ],
      [
        "▁२६",
        -9.477534294128418
      ],
      [
        "▁सोमवारी",
        -9.477727890014648
      ],
      [
        "▁सोय",
        -9.478483200073242
      ],
      [
        "▁आगामी",
        -9.47855281829834
      ],
      [
        "▁सांगितलं",
        -9.478669166564941
      ],
      [
        "▁संपादक",
        -9.47869873046875
      ],
      [
        "ra",
        -9.478954315185547
      ],
      [
        "शास्त्र",
        -9.480262756347656
      ],
      [
        "▁महापालिका",
        -9.480313301086426
      ],
      [
        "▁अ‍ॅप",
        -9.480975151062012
      ],
      [
        "▁निवडणुकीत",
        -9.481003761291504
      ],
      [
        "▁मोड",
        -9.48216724395752
      ],
      [
        "रू",
        -9.482259750366211
      ],
      [
        "ल्यानंतर",
        -9.48233413696289
      ],
      [
        "▁शिक्षा",
        -9.482913970947266
      ],
      [
        "▁केल्यास",
        -9.483307838439941
      ],
      [
        "▁विधान",
        -9.48371410369873
      ],
      [
        "▁छ",
        -9.484418869018555
      ],
      [
        "ावरील",
        -9.484641075134277
      ],
      [
        "▁स्वरूप",
        -9.484820365905762
      ],
      [
        "▁स्वामी",
        -9.485420227050781
      ],
      [
        "▁तशी",
        -9.485627174377441
      ],
      [
        "▁स्वस्त",
        -9.487237930297852
      ],
      [
        "▁उठ",
        -9.487594604492188
      ],
      [
        "▁इतकी",
        -9.488239288330078
      ],
      [
        "▁नवे",
        -9.489739418029785
      ],
      [
        "पाल",
        -9.489798545837402
      ],
      [
        "▁घ्यावी",
        -9.490269660949707
      ],
      [
        "it",
        -9.490310668945312
      ],
      [
        "▁पेपर",
        -9.490992546081543
      ],
      [
        "सि",
        -9.491862297058105
      ],
      [
        "▁विरोधात",
        -9.492514610290527
      ],
      [
        "▁विवाह",
        -9.492761611938477
      ],
      [
        "▁प्राथमिक",
        -9.493060111999512
      ],
      [
        "▁जसे",
        -9.493365287780762
      ],
      [
        "▁आदिवासी",
        -9.494267463684082
      ],
      [
        "▁दुसर्‍या",
        -9.494291305541992
      ],
      [
        "तू",
        -9.494590759277344
      ],
      [
        "▁भविष्य",
        -9.495336532592773
      ],
      [
        "mr",
        -9.49571418762207
      ],
      [
        "▁२३",
        -9.495991706848145
      ],
      [
        "▁धरण",
        -9.497003555297852
      ],
      [
        "▁बरं",
        -9.497143745422363
      ],
      [
        "▁अश्या",
        -9.497359275817871
      ],
      [
        "▁कॉंग्रेस",
        -9.49736499786377
      ],
      [
        "▁पराभव",
        -9.497977256774902
      ],
      [
        "तरी",
        -9.498236656188965
      ],
      [
        "▁तिची",
        -9.499451637268066
      ],
      [
        "▁कॅमेरा",
        -9.499516487121582
      ],
      [
        "▁राग",
        -9.50008487701416
      ],
      [
        "▁कलाकार",
        -9.500863075256348
      ],
      [
        "▁असणे",
        -9.500901222229004
      ],
      [
        "▁महिने",
        -9.501116752624512
      ],
      [
        "▁कौतुक",
        -9.50135612487793
      ],
      [
        "▁खात्री",
        -9.5017671585083
      ],
      [
        "▁वेगळे",
        -9.501852035522461
      ],
      [
        "re",
        -9.502264022827148
      ],
      [
        "▁राहा",
        -9.502695083618164
      ],
      [
        "▁नेहमीच",
        -9.503152847290039
      ],
      [
        "▁फिर",
        -9.503981590270996
      ],
      [
        "ीक",
        -9.503989219665527
      ],
      [
        "24",
        -9.505135536193848
      ],
      [
        "▁पेक्षा",
        -9.505241394042969
      ],
      [
        "शन",
        -9.505545616149902
      ],
      [
        "▁दुष्काळ",
        -9.50577449798584
      ],
      [
        "▁सर्वच",
        -9.507169723510742
      ],
      [
        "▁म्हणाली",
        -9.508197784423828
      ],
      [
        "▁Next",
        -9.509031295776367
      ],
      [
        "वादी",
        -9.509082794189453
      ],
      [
        "▁म्हणूनच",
        -9.509337425231934
      ],
      [
        "▁रूप",
        -9.509377479553223
      ],
      [
        "▁तसं",
        -9.509903907775879
      ],
      [
        "▁कामगार",
        -9.510120391845703
      ],
      [
        "▁ठेव",
        -9.51023006439209
      ],
      [
        "▁ट",
        -9.511722564697266
      ],
      [
        "ंक",
        -9.511824607849121
      ],
      [
        "▁संकेतस्थळ",
        -9.512106895446777
      ],
      [
        "▁छोट्या",
        -9.513514518737793
      ],
      [
        "ाबाबत",
        -9.51368236541748
      ],
      [
        "▁बाजू",
        -9.514413833618164
      ],
      [
        "ेकर",
        -9.515143394470215
      ],
      [
        "▁म्हणुन",
        -9.516179084777832
      ],
      [
        "at",
        -9.516267776489258
      ],
      [
        "▁कंपन्या",
        -9.516908645629883
      ],
      [
        "▁म्हटलं",
        -9.516913414001465
      ],
      [
        "▁हिंदु",
        -9.517024040222168
      ],
      [
        "▁इंग्लंड",
        -9.517484664916992
      ],
      [
        "▁सर्वोत्तम",
        -9.517550468444824
      ],
      [
        "▁दावा",
        -9.518148422241211
      ],
      [
        "▁__",
        -9.518385887145996
      ],
      [
        "मंत्री",
        -9.519015312194824
      ],
      [
        "▁वर्षांपूर्वी",
        -9.519509315490723
      ],
      [
        "▁सल्ला",
        -9.520210266113281
      ],
      [
        "▁हॉटेल",
        -9.520575523376465
      ],
      [
        "▁मानव",
        -9.52088451385498
      ],
      [
        "▁कर्नाटक",
        -9.520999908447266
      ],
      [
        "्यात",
        -9.52103328704834
      ],
      [
        "K",
        -9.521036148071289
      ],
      [
        "▁समुद्र",
        -9.52108383178711
      ],
      [
        "्यू",
        -9.521374702453613
      ],
      [
        "िय",
        -9.52138614654541
      ],
      [
        "▁H",
        -9.521761894226074
      ],
      [
        "▁केल्यानंतर",
        -9.521831512451172
      ],
      [
        "▁अँड",
        -9.522140502929688
      ],
      [
        "▁विचारले",
        -9.523820877075195
      ],
      [
        "२०१८",
        -9.524139404296875
      ],
      [
        "ेत",
        -9.524295806884766
      ],
      [
        "H",
        -9.5246000289917
      ],
      [
        "▁गुंतवणूक",
        -9.52467155456543
      ],
      [
        "▁प्रगती",
        -9.525473594665527
      ],
      [
        "▁चौक",
        -9.525635719299316
      ],
      [
        "7",
        -9.525675773620605
      ],
      [
        "▁कोणतीही",
        -9.526239395141602
      ],
      [
        "▁हल्ला",
        -9.526338577270508
      ],
      [
        "▁ति",
        -9.526996612548828
      ],
      [
        "▁I",
        -9.528368949890137
      ],
      [
        "▁अनु",
        -9.528594017028809
      ],
      [
        "▁वेब",
        -9.52960205078125
      ],
      [
        "▁अति",
        -9.531282424926758
      ],
      [
        "▁सो",
        -9.531829833984375
      ],
      [
        "▁सनातन",
        -9.532821655273438
      ],
      [
        "ल्स",
        -9.533181190490723
      ],
      [
        "▁सोमवार",
        -9.533230781555176
      ],
      [
        "▁बहुतेक",
        -9.534428596496582
      ],
      [
        "सारखी",
        -9.534862518310547
      ],
      [
        "▁मंजूर",
        -9.534900665283203
      ],
      [
        "▁पर्यटन",
        -9.535845756530762
      ],
      [
        "▁स्वीकार",
        -9.535882949829102
      ],
      [
        "▁50",
        -9.535985946655273
      ],
      [
        "▁लागतात",
        -9.53666877746582
      ],
      [
        "▁मिळवण्यासाठी",
        -9.536755561828613
      ],
      [
        "▁द्यावे",
        -9.536839485168457
      ],
      [
        "▁पडत",
        -9.537043571472168
      ],
      [
        "▁पुढच्या",
        -9.537161827087402
      ],
      [
        "▁करणार्‍या",
        -9.537233352661133
      ],
      [
        "▁इतका",
        -9.538141250610352
      ],
      [
        "▁बसला",
        -9.538958549499512
      ],
      [
        "क्रम",
        -9.539244651794434
      ],
      [
        "▁ऍ",
        -9.539704322814941
      ],
      [
        "▁बाजारात",
        -9.539860725402832
      ],
      [
        "▁भरपूर",
        -9.540080070495605
      ],
      [
        "▁वर्षांत",
        -9.540276527404785
      ],
      [
        "▁शो",
        -9.540321350097656
      ],
      [
        "▁वाघ",
        -9.541059494018555
      ],
      [
        "▁दुध",
        -9.541214942932129
      ],
      [
        "▁मजा",
        -9.541985511779785
      ],
      [
        "▁सुमारास",
        -9.542631149291992
      ],
      [
        "▁कवी",
        -9.543108940124512
      ],
      [
        "▁c",
        -9.543642044067383
      ],
      [
        "दु",
        -9.543981552124023
      ],
      [
        "७",
        -9.544631004333496
      ],
      [
        "▁अॅ",
        -9.544770240783691
      ],
      [
        "▁असणाऱ्या",
        -9.54485034942627
      ],
      [
        "▁नीट",
        -9.545001983642578
      ],
      [
        "▁करणारी",
        -9.54515266418457
      ],
      [
        "▁विराट",
        -9.54538345336914
      ],
      [
        "▁घडली",
        -9.545869827270508
      ],
      [
        "▁उद्धव",
        -9.546753883361816
      ],
      [
        "▁पती",
        -9.547560691833496
      ],
      [
        "▁४०",
        -9.547563552856445
      ],
      [
        "▁पाळ",
        -9.548065185546875
      ],
      [
        "▁:)",
        -9.54808235168457
      ],
      [
        "▁चालव",
        -9.548254013061523
      ],
      [
        "▁आरोपी",
        -9.548860549926758
      ],
      [
        "▁मांड",
        -9.549052238464355
      ],
      [
        "बि",
        -9.549266815185547
      ],
      [
        "▁हाच",
        -9.550300598144531
      ],
      [
        "▁जाहिराती",
        -9.551044464111328
      ],
      [
        "▁व्ही",
        -9.551104545593262
      ],
      [
        "▁मंगळवारी",
        -9.551261901855469
      ],
      [
        "ापर्यंत",
        -9.551674842834473
      ],
      [
        "▁खूपच",
        -9.551849365234375
      ],
      [
        "स्त्री",
        -9.551941871643066
      ],
      [
        "▁राहून",
        -9.553900718688965
      ],
      [
        "काय",
        -9.554018020629883
      ],
      [
        "▁इशारा",
        -9.554018020629883
      ],
      [
        "▁हत्या",
        -9.55586051940918
      ],
      [
        "▁क्षमता",
        -9.555866241455078
      ],
      [
        "▁कठीण",
        -9.55616569519043
      ],
      [
        "▁शहा",
        -9.556292533874512
      ],
      [
        "▁इंटरनेट",
        -9.556553840637207
      ],
      [
        "▁शंका",
        -9.557252883911133
      ],
      [
        "▁देण्याची",
        -9.557525634765625
      ],
      [
        "▁बलात्कार",
        -9.55785846710205
      ],
      [
        "▁ऑ",
        -9.558948516845703
      ],
      [
        "▁0",
        -9.559004783630371
      ],
      [
        "▁असावी",
        -9.559255599975586
      ],
      [
        "▁यासह",
        -9.559566497802734
      ],
      [
        "▁क्रांती",
        -9.559599876403809
      ],
      [
        "▁चालत",
        -9.560025215148926
      ],
      [
        "▁बुधवारी",
        -9.560083389282227
      ],
      [
        "▁बाई",
        -9.560105323791504
      ],
      [
        "▁परि",
        -9.560449600219727
      ],
      [
        "▁नांदेड",
        -9.560958862304688
      ],
      [
        "▁निमित्ताने",
        -9.561165809631348
      ],
      [
        "▁जोरदार",
        -9.562294006347656
      ],
      [
        "▁इमारती",
        -9.562646865844727
      ],
      [
        "गु",
        -9.56286334991455
      ],
      [
        "ींग",
        -9.56342887878418
      ],
      [
        "▁शुक्रवारी",
        -9.56364917755127
      ],
      [
        "▁माती",
        -9.565165519714355
      ],
      [
        "▁लोकांनी",
        -9.565643310546875
      ],
      [
        "▁उभा",
        -9.566540718078613
      ],
      [
        "▁माहितीसाठी",
        -9.566861152648926
      ],
      [
        "▁शनिवारी",
        -9.566923141479492
      ],
      [
        "▁साहेब",
        -9.567301750183105
      ],
      [
        "▁बुधवार",
        -9.567877769470215
      ],
      [
        "*",
        -9.568635940551758
      ],
      [
        "▁खासगी",
        -9.569513320922852
      ],
      [
        "र्ड",
        -9.571104049682617
      ],
      [
        "▁२८",
        -9.571931838989258
      ],
      [
        "सारखा",
        -9.572002410888672
      ],
      [
        "▁हस",
        -9.572278022766113
      ],
      [
        "▁17",
        -9.572787284851074
      ],
      [
        "▁धु",
        -9.573040008544922
      ],
      [
        "▁गरजेचे",
        -9.573041915893555
      ],
      [
        "▁सण",
        -9.574056625366211
      ],
      [
        "मुंबई",
        -9.574212074279785
      ],
      [
        "▁असावे",
        -9.574224472045898
      ],
      [
        "ाना",
        -9.578106880187988
      ],
      [
        "▁K",
        -9.578697204589844
      ],
      [
        "▁गु",
        -9.578935623168945
      ],
      [
        "▁पडली",
        -9.579570770263672
      ],
      [
        "‘",
        -9.57957935333252
      ],
      [
        "▁बांध",
        -9.579642295837402
      ],
      [
        "▁उत्सव",
        -9.579835891723633
      ],
      [
        "८",
        -9.579863548278809
      ],
      [
        "▁गुन्हे",
        -9.580446243286133
      ],
      [
        "▁सामन्यात",
        -9.581254005432129
      ],
      [
        "▁थांब",
        -9.58204460144043
      ],
      [
        "▁खरा",
        -9.582173347473145
      ],
      [
        "▁मागवा",
        -9.58381462097168
      ],
      [
        "▁प्रसंग",
        -9.5847806930542
      ],
      [
        "▁सर्वांना",
        -9.5850830078125
      ],
      [
        "v",
        -9.585555076599121
      ],
      [
        "▁महत्त्वाचे",
        -9.585652351379395
      ],
      [
        "▁आणी",
        -9.585670471191406
      ],
      [
        "am",
        -9.586600303649902
      ],
      [
        "▁प्रदर्शन",
        -9.586783409118652
      ],
      [
        "वन",
        -9.586793899536133
      ],
      [
        "6",
        -9.587570190429688
      ],
      [
        "▁वर्षांपासून",
        -9.587677955627441
      ],
      [
        "▁जाण",
        -9.589059829711914
      ],
      [
        "▁धार्मिक",
        -9.589203834533691
      ],
      [
        "▁महत्वाचे",
        -9.589735984802246
      ],
      [
        "▁ब्लॅक",
        -9.590188980102539
      ],
      [
        "▁खरंच",
        -9.590361595153809
      ],
      [
        "▁सोपे",
        -9.59114933013916
      ],
      [
        "▁ले",
        -9.59135627746582
      ],
      [
        "िस",
        -9.592896461486816
      ],
      [
        "8",
        -9.593289375305176
      ],
      [
        "▁आहार",
        -9.596004486083984
      ],
      [
        "▁आपलं",
        -9.59604263305664
      ],
      [
        "▁संघर्ष",
        -9.596611022949219
      ],
      [
        "▁रविवार",
        -9.59666919708252
      ],
      [
        "वान",
        -9.597421646118164
      ],
      [
        "▁देशपांडे",
        -9.59814167022705
      ],
      [
        "&",
        -9.599136352539062
      ],
      [
        "▁वाचन",
        -9.599191665649414
      ],
      [
        "▁प्रमाणपत्र",
        -9.599302291870117
      ],
      [
        "▁मालिका",
        -9.6000337600708
      ],
      [
        "▁२७",
        -9.60131549835205
      ],
      [
        "तल्या",
        -9.601421356201172
      ],
      [
        "▁कळत",
        -9.601946830749512
      ],
      [
        "बाई",
        -9.602116584777832
      ],
      [
        "▁सरळ",
        -9.602371215820312
      ],
      [
        "▁असत",
        -9.60270881652832
      ],
      [
        "▁वेग",
        -9.602941513061523
      ],
      [
        "बो",
        -9.60307502746582
      ],
      [
        "टो",
        -9.60484790802002
      ],
      [
        "▁ईमेल",
        -9.605591773986816
      ],
      [
        "▁वाग",
        -9.605729103088379
      ],
      [
        "▁हवामान",
        -9.605915069580078
      ],
      [
        "▁दर्जा",
        -9.606091499328613
      ],
      [
        "▁तालुका",
        -9.606464385986328
      ],
      [
        "▁बघून",
        -9.606826782226562
      ],
      [
        "▁शनिवार",
        -9.606950759887695
      ],
      [
        "ण्यास",
        -9.6071195602417
      ],
      [
        "▁साधारण",
        -9.607588768005371
      ],
      [
        "▁आलेली",
        -9.60764217376709
      ],
      [
        "ch",
        -9.607754707336426
      ],
      [
        "▁साधने",
        -9.607755661010742
      ],
      [
        "▁प्रमाणे",
        -9.60830020904541
      ],
      [
        "▁23",
        -9.608875274658203
      ],
      [
        "▁फारच",
        -9.610833168029785
      ],
      [
        "▁धन",
        -9.610913276672363
      ],
      [
        "▁खंड",
        -9.61154556274414
      ],
      [
        "वेळी",
        -9.611716270446777
      ],
      [
        "▁कडे",
        -9.611777305603027
      ],
      [
        "▁बैठकीत",
        -9.612778663635254
      ],
      [
        "▁दिवसात",
        -9.613512992858887
      ],
      [
        "▁दंड",
        -9.61446762084961
      ],
      [
        "▁एखादी",
        -9.614801406860352
      ],
      [
        "▁केल्याने",
        -9.615079879760742
      ],
      [
        "▁पृष्ठ",
        -9.615079879760742
      ],
      [
        "▁त्यातील",
        -9.615477561950684
      ],
      [
        "▁असल्या",
        -9.615805625915527
      ],
      [
        "१२",
        -9.616174697875977
      ],
      [
        "▁कॉ",
        -9.616300582885742
      ],
      [
        "▁विक्रम",
        -9.617388725280762
      ],
      [
        "▁उदाहरण",
        -9.618136405944824
      ],
      [
        "▁मराठीत",
        -9.619674682617188
      ],
      [
        "ांमुळे",
        -9.619806289672852
      ],
      [
        "▁मतदार",
        -9.621539115905762
      ],
      [
        "▁जुने",
        -9.622427940368652
      ],
      [
        "▁अंमलबजावणी",
        -9.624091148376465
      ],
      [
        "▁समाधान",
        -9.626296997070312
      ],
      [
        "▁कदम",
        -9.62684154510498
      ],
      [
        "#",
        -9.627077102661133
      ],
      [
        "गार",
        -9.627359390258789
      ],
      [
        "▁प्रकारचे",
        -9.628256797790527
      ],
      [
        "▁विकत",
        -9.628788948059082
      ],
      [
        "▁भरून",
        -9.628835678100586
      ],
      [
        "▁सुधारणा",
        -9.628973960876465
      ],
      [
        "▁अभिनंदन",
        -9.629022598266602
      ],
      [
        "रूप",
        -9.629677772521973
      ],
      [
        "▁उपयुक्त",
        -9.629778861999512
      ],
      [
        "▁महत्त्व",
        -9.630810737609863
      ],
      [
        "▁बॅंक",
        -9.630974769592285
      ],
      [
        "▁पेट्रोल",
        -9.63222885131836
      ],
      [
        "▁सारे",
        -9.632781982421875
      ],
      [
        "▁मिळ",
        -9.632926940917969
      ],
      [
        "▁म्हणता",
        -9.633017539978027
      ],
      [
        "O",
        -9.633245468139648
      ],
      [
        "▁सर्वांसाठी",
        -9.633500099182129
      ],
      [
        "▁आयोग",
        -9.633577346801758
      ],
      [
        "फा",
        -9.633583068847656
      ],
      [
        "▁सिंह",
        -9.633715629577637
      ],
      [
        "j",
        -9.63388442993164
      ],
      [
        "▁21",
        -9.633935928344727
      ],
      [
        "▁परिवहन",
        -9.633962631225586
      ],
      [
        "▁शा",
        -9.63436508178711
      ],
      [
        "▁सन्मान",
        -9.635465621948242
      ],
      [
        "▁मंगळवार",
        -9.63585090637207
      ],
      [
        "▁रुग्ण",
        -9.637519836425781
      ],
      [
        "▁आठवले",
        -9.637964248657227
      ],
      [
        "▁ठरले",
        -9.638431549072266
      ],
      [
        "sh",
        -9.638790130615234
      ],
      [
        "▁नैसर्गिक",
        -9.638954162597656
      ],
      [
        "कुमार",
        -9.639237403869629
      ],
      [
        "▁करेल",
        -9.63951587677002
      ],
      [
        "▁गप्पा",
        -9.63957691192627
      ],
      [
        "▁जोडले",
        -9.639850616455078
      ],
      [
        "▁जम",
        -9.639851570129395
      ],
      [
        "▁चतुर्थी",
        -9.63991641998291
      ],
      [
        "▁यांच्यावर",
        -9.639931678771973
      ],
      [
        "ल्ड",
        -9.640642166137695
      ],
      [
        "पुर",
        -9.640926361083984
      ],
      [
        "▁उघडून",
        -9.640953063964844
      ],
      [
        "▁संमेलन",
        -9.641186714172363
      ],
      [
        "▁बिल",
        -9.641558647155762
      ],
      [
        "▁राहू",
        -9.64159870147705
      ],
      [
        "▁युवक",
        -9.642192840576172
      ],
      [
        "▁कचरा",
        -9.642386436462402
      ],
      [
        "▁सांस्कृतिक",
        -9.642672538757324
      ],
      [
        "क्",
        -9.64267635345459
      ],
      [
        "▁साधा",
        -9.643219947814941
      ],
      [
        "▁संगणक",
        -9.643707275390625
      ],
      [
        "ंचं",
        -9.643821716308594
      ],
      [
        "▁तिकीट",
        -9.643876075744629
      ],
      [
        "लोक",
        -9.644209861755371
      ],
      [
        "▁असेच",
        -9.644261360168457
      ],
      [
        "▁E",
        -9.645030975341797
      ],
      [
        "▁रोख",
        -9.645675659179688
      ],
      [
        "▁घेणार",
        -9.645980834960938
      ],
      [
        "▁तुझा",
        -9.647220611572266
      ],
      [
        "▁स्टेशन",
        -9.647730827331543
      ],
      [
        "▁कलम",
        -9.648216247558594
      ],
      [
        "▁हवं",
        -9.64851188659668
      ],
      [
        "▁३१",
        -9.64861011505127
      ],
      [
        "▁आधुनिक",
        -9.64867115020752
      ],
      [
        "।",
        -9.648848533630371
      ],
      [
        "▁वेगळा",
        -9.649831771850586
      ],
      [
        "▁है",
        -9.651667594909668
      ],
      [
        "▁एखादा",
        -9.652424812316895
      ],
      [
        "▁घे",
        -9.65282917022705
      ],
      [
        "▁मैत्री",
        -9.653246879577637
      ],
      [
        "▁दिलेली",
        -9.653746604919434
      ],
      [
        "▁कॉल",
        -9.653899192810059
      ],
      [
        "@",
        -9.65393352508545
      ],
      [
        "▁by",
        -9.65407943725586
      ],
      [
        "▁सिंग",
        -9.654726028442383
      ],
      [
        "▁टिक",
        -9.6548490524292
      ],
      [
        "▁ताब्यात",
        -9.655752182006836
      ],
      [
        "▁सायकल",
        -9.65615463256836
      ],
      [
        "▁प्रचार",
        -9.656636238098145
      ],
      [
        "▁नसून",
        -9.657548904418945
      ],
      [
        "द्",
        -9.65771770477295
      ],
      [
        "▁गुजरात",
        -9.658299446105957
      ],
      [
        "यु",
        -9.658539772033691
      ],
      [
        "▁लिहिले",
        -9.660243034362793
      ],
      [
        "▁होण्यासाठी",
        -9.660243034362793
      ],
      [
        "▁मायबोलीवर",
        -9.661250114440918
      ],
      [
        "ेट",
        -9.662923812866211
      ],
      [
        "U",
        -9.662928581237793
      ],
      [
        "विरुद्ध",
        -9.664165496826172
      ],
      [
        "▁फि",
        -9.66516399383545
      ],
      [
        "▁पूजा",
        -9.66602897644043
      ],
      [
        "https",
        -9.666474342346191
      ],
      [
        "▁राव",
        -9.66662883758545
      ],
      [
        "▁मायबोलीकर",
        -9.667435646057129
      ],
      [
        "▁लागल्या",
        -9.667797088623047
      ],
      [
        "▁देशा",
        -9.667892456054688
      ],
      [
        "काम",
        -9.668245315551758
      ],
      [
        "▁देतात",
        -9.669051170349121
      ],
      [
        "▁बळी",
        -9.671008110046387
      ],
      [
        "▁पुर",
        -9.671247482299805
      ],
      [
        "▁लिहा",
        -9.672350883483887
      ],
      [
        "त्",
        -9.67237377166748
      ],
      [
        "▁कपडे",
        -9.673592567443848
      ],
      [
        "ur",
        -9.673888206481934
      ],
      [
        "▁गोंधळ",
        -9.674038887023926
      ],
      [
        "▁२०१४",
        -9.67426586151123
      ],
      [
        "▁काढले",
        -9.675681114196777
      ],
      [
        "▁देते",
        -9.675898551940918
      ],
      [
        "वं",
        -9.67644214630127
      ],
      [
        "▁नव्हतं",
        -9.67682933807373
      ],
      [
        "▁मधून",
        -9.677380561828613
      ],
      [
        "▁सुरेश",
        -9.67789363861084
      ],
      [
        "▁दुसरे",
        -9.679070472717285
      ],
      [
        "▁न्यायालयात",
        -9.679716110229492
      ],
      [
        "▁अनिल",
        -9.679831504821777
      ],
      [
        "▁घाट",
        -9.679917335510254
      ],
      [
        "▁संभाजी",
        -9.680222511291504
      ],
      [
        "▁सचिव",
        -9.680279731750488
      ],
      [
        "▁मुस्लिम",
        -9.680343627929688
      ],
      [
        "▁स्ट",
        -9.680639266967773
      ],
      [
        "▁बोलताना",
        -9.680696487426758
      ],
      [
        "▁अमेरिकन",
        -9.68091106414795
      ],
      [
        "५०",
        -9.681233406066895
      ],
      [
        "ेज",
        -9.681902885437012
      ],
      [
        "ांतील",
        -9.682942390441895
      ],
      [
        "▁काँग्रेसचे",
        -9.682988166809082
      ],
      [
        "▁हीच",
        -9.683664321899414
      ],
      [
        "▁भु",
        -9.68397045135498
      ],
      [
        "▁दुर्लक्ष",
        -9.684096336364746
      ],
      [
        "▁रोजगार",
        -9.684370040893555
      ],
      [
        "ुर",
        -9.68454360961914
      ],
      [
        "▁अवघड",
        -9.684611320495605
      ],
      [
        "▁विषयावर",
        -9.684661865234375
      ],
      [
        "▁सुट",
        -9.68478775024414
      ],
      [
        "शक्ती",
        -9.685261726379395
      ],
      [
        "▁गणेशोत्सव",
        -9.685990333557129
      ],
      [
        "▁वाचल्या",
        -9.686136245727539
      ],
      [
        "▁कर्जमाफी",
        -9.686338424682617
      ],
      [
        "▁काळे",
        -9.686453819274902
      ],
      [
        "▁आधीच",
        -9.686647415161133
      ],
      [
        "▁रस्ते",
        -9.687646865844727
      ],
      [
        "▁दिलं",
        -9.688004493713379
      ],
      [
        "▁बाळासाहेब",
        -9.688261032104492
      ],
      [
        "▁मानसिक",
        -9.688331604003906
      ],
      [
        "▁अद्याप",
        -9.689312934875488
      ],
      [
        "▁सर्वसामान्य",
        -9.690070152282715
      ],
      [
        "▁निश्चित",
        -9.69030475616455
      ],
      [
        "▁मनसे",
        -9.690430641174316
      ],
      [
        "▁बघत",
        -9.69125747680664
      ],
      [
        "▁विरुद्ध",
        -9.691314697265625
      ],
      [
        "सन",
        -9.692118644714355
      ],
      [
        "▁तुझे",
        -9.692126274108887
      ],
      [
        "kar",
        -9.69314956665039
      ],
      [
        "▁गाणी",
        -9.6945161819458
      ],
      [
        "▁सारख्या",
        -9.694966316223145
      ],
      [
        "▁व्हावे",
        -9.695459365844727
      ],
      [
        "▁देण्याचा",
        -9.69559097290039
      ],
      [
        "ापेक्षा",
        -9.69680404663086
      ],
      [
        "▁लिखाण",
        -9.69903564453125
      ],
      [
        "ट्या",
        -9.699211120605469
      ],
      [
        "▁जावे",
        -9.69957160949707
      ],
      [
        "▁हार्दिक",
        -9.699644088745117
      ],
      [
        "20",
        -9.699892044067383
      ],
      [
        "▁बरे",
        -9.701281547546387
      ],
      [
        "दान",
        -9.702005386352539
      ],
      [
        "▁सुर",
        -9.70303726196289
      ],
      [
        "पैकी",
        -9.70321273803711
      ],
      [
        "ार्थ",
        -9.704056739807129
      ],
      [
        "▁वाटेल",
        -9.704353332519531
      ],
      [
        "▁मूर्ती",
        -9.704423904418945
      ],
      [
        "▁दुसरी",
        -9.705764770507812
      ],
      [
        "un",
        -9.705957412719727
      ],
      [
        "▁हाय",
        -9.706440925598145
      ],
      [
        "▁मालक",
        -9.70677375793457
      ],
      [
        "on",
        -9.707722663879395
      ],
      [
        "▁पार्टी",
        -9.708123207092285
      ],
      [
        "बर",
        -9.708492279052734
      ],
      [
        "▁आदर्श",
        -9.708581924438477
      ],
      [
        "▁शुल्क",
        -9.708593368530273
      ],
      [
        "▁शासनाने",
        -9.709104537963867
      ],
      [
        "▁आलेला",
        -9.709272384643555
      ],
      [
        "▁भाषण",
        -9.709403038024902
      ],
      [
        "▁मानवी",
        -9.709548950195312
      ],
      [
        "▁दिवसांत",
        -9.709644317626953
      ],
      [
        "हर",
        -9.709833145141602
      ],
      [
        "▁गोवा",
        -9.70999813079834
      ],
      [
        "▁उत्पादने",
        -9.710210800170898
      ],
      [
        "▁कट",
        -9.710532188415527
      ],
      [
        "▁भागातील",
        -9.710572242736816
      ],
      [
        "▁मुंडे",
        -9.71257209777832
      ],
      [
        "▁जप",
        -9.713261604309082
      ],
      [
        "▁जाणीव",
        -9.713512420654297
      ],
      [
        "▁पद्धत",
        -9.71440601348877
      ],
      [
        "▁घट",
        -9.714424133300781
      ],
      [
        "▁....",
        -9.714910507202148
      ],
      [
        "▁प्रताधिकार",
        -9.714990615844727
      ],
      [
        "▁शेवटचा",
        -9.716293334960938
      ],
      [
        "▁गुरुवारी",
        -9.716826438903809
      ],
      [
        "):",
        -9.717345237731934
      ],
      [
        "▁ऐकून",
        -9.718422889709473
      ],
      [
        "x",
        -9.718437194824219
      ],
      [
        "▁22",
        -9.718867301940918
      ],
      [
        "▁पाहू",
        -9.719112396240234
      ],
      [
        "▁ओढ",
        -9.720833778381348
      ],
      [
        "▁पाठ",
        -9.721063613891602
      ],
      [
        "▁हवाई",
        -9.721580505371094
      ],
      [
        "▁बॉस",
        -9.722097396850586
      ],
      [
        "▁नारायण",
        -9.722625732421875
      ],
      [
        "ांसह",
        -9.722668647766113
      ],
      [
        "▁मर",
        -9.723021507263184
      ],
      [
        "▁पंचायत",
        -9.723257064819336
      ],
      [
        "▁मानले",
        -9.723357200622559
      ],
      [
        "▁लोकशाही",
        -9.723386764526367
      ],
      [
        "ंडा",
        -9.7238187789917
      ],
      [
        "▁आकाश",
        -9.724635124206543
      ],
      [
        "योग",
        -9.725083351135254
      ],
      [
        "▁आण",
        -9.725530624389648
      ],
      [
        "▁जिल्हाधिकारी",
        -9.726126670837402
      ],
      [
        "ठा",
        -9.726184844970703
      ],
      [
        "▁खो",
        -9.726318359375
      ],
      [
        "▁त्याचं",
        -9.726340293884277
      ],
      [
        "▁कोणताही",
        -9.72706413269043
      ],
      [
        "▁पाऊल",
        -9.727569580078125
      ],
      [
        "na",
        -9.728243827819824
      ],
      [
        "▁चाचणी",
        -9.728375434875488
      ],
      [
        "▁टाकून",
        -9.728659629821777
      ],
      [
        "▁धावा",
        -9.728983879089355
      ],
      [
        "▁महात्मा",
        -9.72930908203125
      ],
      [
        "9",
        -9.729543685913086
      ],
      [
        "▁थोडी",
        -9.729813575744629
      ],
      [
        "धा",
        -9.73039436340332
      ],
      [
        "▁सहन",
        -9.73049545288086
      ],
      [
        "फि",
        -9.730552673339844
      ],
      [
        "▁चूक",
        -9.730657577514648
      ],
      [
        "डो",
        -9.731038093566895
      ],
      [
        "▁28",
        -9.731525421142578
      ],
      [
        "▁to",
        -9.731612205505371
      ],
      [
        "▁शुद्ध",
        -9.732475280761719
      ],
      [
        "▁महोत्सव",
        -9.732730865478516
      ],
      [
        "▁घ",
        -9.733085632324219
      ],
      [
        "▁मनुष्य",
        -9.73318099975586
      ],
      [
        "▁दा",
        -9.734222412109375
      ],
      [
        "▁अभ्यासक्रम",
        -9.735404014587402
      ],
      [
        "▁देवी",
        -9.735552787780762
      ],
      [
        "▁दिग्दर्शक",
        -9.736152648925781
      ],
      [
        "▁ठेवला",
        -9.736350059509277
      ],
      [
        "▁भाषेत",
        -9.736392974853516
      ],
      [
        "▁पत्ता",
        -9.736405372619629
      ],
      [
        "▁छायाचित्र",
        -9.736434936523438
      ],
      [
        "▁प्रे",
        -9.736692428588867
      ],
      [
        "▁हजारो",
        -9.736895561218262
      ],
      [
        "र्क",
        -9.737133026123047
      ],
      [
        "▁रचना",
        -9.737152099609375
      ],
      [
        "▁रुग्णालयात",
        -9.738128662109375
      ],
      [
        "▁बायको",
        -9.738479614257812
      ],
      [
        "▁स्वाधीन",
        -9.7386474609375
      ],
      [
        "▁संपादन",
        -9.738699913024902
      ],
      [
        "▁राशीभविष्य",
        -9.739011764526367
      ],
      [
        "▁1.",
        -9.739628791809082
      ],
      [
        "डि",
        -9.741863250732422
      ],
      [
        "▁वरिष्ठ",
        -9.742090225219727
      ],
      [
        "▁हृदय",
        -9.742599487304688
      ],
      [
        "as",
        -9.742694854736328
      ],
      [
        "▁लो",
        -9.743372917175293
      ],
      [
        "▁इतक्या",
        -9.74399185180664
      ],
      [
        "▁बन",
        -9.744332313537598
      ],
      [
        "▁अपेक्षित",
        -9.744534492492676
      ],
      [
        "▁प्रतिमा",
        -9.746124267578125
      ],
      [
        "ावं",
        -9.74634075164795
      ],
      [
        "हार",
        -9.746458053588867
      ],
      [
        "▁विसर",
        -9.74673843383789
      ],
      [
        "गिरी",
        -9.746973037719727
      ],
      [
        "▁स्मार्ट",
        -9.747634887695312
      ],
      [
        "▁बोट",
        -9.748125076293945
      ],
      [
        "छ",
        -9.749038696289062
      ],
      [
        "▁झालो",
        -9.749246597290039
      ],
      [
        "ंशी",
        -9.74964714050293
      ],
      [
        "▁पाहत",
        -9.750728607177734
      ],
      [
        "▁निघून",
        -9.750802040100098
      ],
      [
        "▁भि",
        -9.751592636108398
      ],
      [
        "▁ऑस्ट्रेलिया",
        -9.751843452453613
      ],
      [
        "▁गौरव",
        -9.75190258026123
      ],
      [
        "ातल्या",
        -9.75204086303711
      ],
      [
        "il",
        -9.752151489257812
      ],
      [
        "भाव",
        -9.752241134643555
      ],
      [
        "कल",
        -9.752540588378906
      ],
      [
        "▁http",
        -9.754456520080566
      ],
      [
        "▁दररोज",
        -9.75468635559082
      ],
      [
        "wikipedia",
        -9.755302429199219
      ],
      [
        "▁प्रकरणी",
        -9.75556755065918
      ],
      [
        "्ड",
        -9.756304740905762
      ],
      [
        "▁अव",
        -9.756928443908691
      ],
      [
        "▁पाककृती",
        -9.757500648498535
      ],
      [
        "▁प्रभाव",
        -9.758552551269531
      ],
      [
        "▁अपडेट्स",
        -9.759672164916992
      ],
      [
        "खाली",
        -9.759933471679688
      ],
      [
        "▁२०११",
        -9.759978294372559
      ],
      [
        "साहेब",
        -9.760379791259766
      ],
      [
        "▁आकर्षक",
        -9.7610445022583
      ],
      [
        "▁धर",
        -9.761215209960938
      ],
      [
        "▁करणं",
        -9.761474609375
      ],
      [
        "दरम्यान",
        -9.762551307678223
      ],
      [
        "▁2016",
        -9.762659072875977
      ],
      [
        "▁सहकार्य",
        -9.763182640075684
      ],
      [
        "▁गुरू",
        -9.763233184814453
      ],
      [
        "▁संकल्पना",
        -9.763819694519043
      ],
      [
        "▁आवश्यकता",
        -9.763907432556152
      ],
      [
        "▁बनव",
        -9.764324188232422
      ],
      [
        "ेड",
        -9.764516830444336
      ],
      [
        "▁यंत्रणा",
        -9.764848709106445
      ],
      [
        "ाप्रमाणे",
        -9.765159606933594
      ],
      [
        "▁मीठ",
        -9.765410423278809
      ],
      [
        "▁स्थळ",
        -9.765953063964844
      ],
      [
        "▁दल",
        -9.766030311584473
      ],
      [
        "▁यू",
        -9.766292572021484
      ],
      [
        "▁शर्मा",
        -9.766311645507812
      ],
      [
        "▁झाल्यास",
        -9.766845703125
      ],
      [
        "वू",
        -9.766874313354492
      ],
      [
        "▁पूर्णपणे",
        -9.767288208007812
      ],
      [
        "▁जाग",
        -9.767306327819824
      ],
      [
        "▁व्हायला",
        -9.767858505249023
      ],
      [
        "__",
        -9.768684387207031
      ],
      [
        "▁निर्यात",
        -9.76909351348877
      ],
      [
        "▁मासिक",
        -9.769360542297363
      ],
      [
        "▁विद्यार्थ्यां",
        -9.769964218139648
      ],
      [
        "▁आधारित",
        -9.770133972167969
      ],
      [
        "ation",
        -9.77077579498291
      ],
      [
        "▁पुरवठा",
        -9.77089786529541
      ],
      [
        "▁न्यायालय",
        -9.771724700927734
      ],
      [
        "११",
        -9.771834373474121
      ],
      [
        "▁ग्रुप",
        -9.771925926208496
      ],
      [
        "ंडे",
        -9.772043228149414
      ],
      [
        "▁अलीकडील",
        -9.772980690002441
      ],
      [
        "▁पकड",
        -9.77354621887207
      ],
      [
        "▁कुठल्याही",
        -9.773652076721191
      ],
      [
        "कड",
        -9.773721694946289
      ],
      [
        "▁बीड",
        -9.773764610290527
      ],
      [
        "▁राष्ट्रपती",
        -9.773879051208496
      ],
      [
        "▁पटेल",
        -9.774036407470703
      ],
      [
        "▁समान",
        -9.77415943145752
      ],
      [
        "िनी",
        -9.774218559265137
      ],
      [
        "▁अधिकृत",
        -9.774421691894531
      ],
      [
        "▁टाकले",
        -9.77466106414795
      ],
      [
        "▁चला",
        -9.77478313446045
      ],
      [
        "▁जाणाऱ्या",
        -9.774971961975098
      ],
      [
        "▁डाव",
        -9.775345802307129
      ],
      [
        "▁अजित",
        -9.776524543762207
      ],
      [
        "▁अनुदान",
        -9.776999473571777
      ],
      [
        "ोन",
        -9.77763843536377
      ],
      [
        "▁वडील",
        -9.777681350708008
      ],
      [
        "▁वेगळी",
        -9.777710914611816
      ],
      [
        "▁वेबसाईट",
        -9.777710914611816
      ],
      [
        "मत",
        -9.7783842086792
      ],
      [
        "V",
        -9.778472900390625
      ],
      [
        "९",
        -9.779117584228516
      ],
      [
        "मय",
        -9.78089427947998
      ],
      [
        "▁घ्यावा",
        -9.78111743927002
      ],
      [
        "▁टीव्ही",
        -9.781461715698242
      ],
      [
        "▁माय",
        -9.7816801071167
      ],
      [
        "▁गरीब",
        -9.781917572021484
      ],
      [
        "▁स्वतःच्या",
        -9.782072067260742
      ],
      [
        "▁डेटा",
        -9.782821655273438
      ],
      [
        "▁शुक्रवार",
        -9.783230781555176
      ],
      [
        "▁घड",
        -9.7833890914917
      ],
      [
        "▁पीक",
        -9.78398323059082
      ],
      [
        "▁परिसर",
        -9.78421688079834
      ],
      [
        "▁ऑफिस",
        -9.785099983215332
      ],
      [
        "▁सैनिक",
        -9.785221099853516
      ],
      [
        "▁पाप",
        -9.785244941711426
      ],
      [
        "te",
        -9.785956382751465
      ],
      [
        "▁सांगून",
        -9.786186218261719
      ],
      [
        "▁कोणाला",
        -9.786540031433105
      ],
      [
        "▁मान्यता",
        -9.787031173706055
      ],
      [
        "मुक्त",
        -9.78731918334961
      ],
      [
        "ंस",
        -9.787758827209473
      ],
      [
        "et",
        -9.788704872131348
      ],
      [
        "▁धक्का",
        -9.789194107055664
      ],
      [
        "▁जमिनी",
        -9.789584159851074
      ],
      [
        "▁वाटप",
        -9.789607048034668
      ],
      [
        "▁V",
        -9.789807319641113
      ],
      [
        "▁प्रदान",
        -9.790075302124023
      ],
      [
        "▁उद्",
        -9.790393829345703
      ],
      [
        "▁दरवर्षी",
        -9.790529251098633
      ],
      [
        "30",
        -9.791563034057617
      ],
      [
        "▁प्रेरणा",
        -9.791566848754883
      ],
      [
        "▁बोलू",
        -9.791784286499023
      ],
      [
        "▁Re",
        -9.791821479797363
      ],
      [
        "▁अभिनेता",
        -9.791871070861816
      ],
      [
        "▁पातळीवर",
        -9.792036056518555
      ],
      [
        "▁''",
        -9.792040824890137
      ],
      [
        "▁म्हणे",
        -9.792243003845215
      ],
      [
        "त्य",
        -9.792460441589355
      ],
      [
        "▁नेतृत्व",
        -9.79328727722168
      ],
      [
        "▁कार्यरत",
        -9.793701171875
      ],
      [
        "▁लैंगिक",
        -9.793810844421387
      ],
      [
        "▁एल",
        -9.794167518615723
      ],
      [
        "र्म",
        -9.794194221496582
      ],
      [
        "राज्य",
        -9.794342041015625
      ],
      [
        "▁सेक्स",
        -9.794530868530273
      ],
      [
        "ताई",
        -9.794929504394531
      ],
      [
        "वळ",
        -9.795391082763672
      ],
      [
        "▁वाढदिवस",
        -9.795452117919922
      ],
      [
        "▁सांगतो",
        -9.796390533447266
      ],
      [
        "▁फा",
        -9.796724319458008
      ],
      [
        "▁तारीख",
        -9.796890258789062
      ],
      [
        "▁पं",
        -9.797653198242188
      ],
      [
        "▁चंद्रकांत",
        -9.797948837280273
      ],
      [
        "▁पोहोच",
        -9.798008918762207
      ],
      [
        "▁२०१३",
        -9.798065185546875
      ],
      [
        "▁पदवी",
        -9.798700332641602
      ],
      [
        "▁>>",
        -9.798762321472168
      ],
      [
        "es",
        -9.799519538879395
      ],
      [
        "▁घ्यावे",
        -9.799690246582031
      ],
      [
        "▁शतक",
        -9.800026893615723
      ],
      [
        "▁मिळवून",
        -9.800182342529297
      ],
      [
        "▁दगड",
        -9.800934791564941
      ],
      [
        "▁सभा",
        -9.801305770874023
      ],
      [
        "यू",
        -9.80136489868164
      ],
      [
        "▁घ्यायला",
        -9.801560401916504
      ],
      [
        "▁नाईक",
        -9.801769256591797
      ],
      [
        "युक्त",
        -9.801846504211426
      ],
      [
        "▁टे",
        -9.80321979522705
      ],
      [
        "▁दाखव",
        -9.803506851196289
      ],
      [
        "ाल",
        -9.804298400878906
      ],
      [
        "▁मार्केट",
        -9.804525375366211
      ],
      [
        "वर्ग",
        -9.80482292175293
      ],
      [
        "▁पाव",
        -9.805460929870605
      ],
      [
        "▁डोंगर",
        -9.805631637573242
      ],
      [
        "▁कार्यकर्ते",
        -9.80571174621582
      ],
      [
        "▁दीड",
        -9.805800437927246
      ],
      [
        "php",
        -9.805953025817871
      ],
      [
        "▁चेहरा",
        -9.806204795837402
      ],
      [
        "सू",
        -9.806591033935547
      ],
      [
        "▁युवा",
        -9.80694580078125
      ],
      [
        "▁26",
        -9.80711555480957
      ],
      [
        "▁”",
        -9.807202339172363
      ],
      [
        "▁बाप",
        -9.807424545288086
      ],
      [
        "▁लोकांच्या",
        -9.807613372802734
      ],
      [
        "10",
        -9.80846118927002
      ],
      [
        "▁बसून",
        -9.809761047363281
      ],
      [
        "▁पाठव",
        -9.809874534606934
      ],
      [
        "▁बार",
        -9.810643196105957
      ],
      [
        "▁ठाण्यात",
        -9.8111572265625
      ],
      [
        "▁अभियान",
        -9.811605453491211
      ],
      [
        "▁पाक",
        -9.811629295349121
      ],
      [
        "▁जीवनात",
        -9.81216049194336
      ],
      [
        "▁गुरुवार",
        -9.812278747558594
      ],
      [
        "W",
        -9.812390327453613
      ],
      [
        "▁तीव्र",
        -9.813247680664062
      ],
      [
        "▁वर्षीय",
        -9.81356143951416
      ],
      [
        "title",
        -9.81375503540039
      ],
      [
        "▁विशिष्ट",
        -9.81383228302002
      ],
      [
        "▁दिशेने",
        -9.814191818237305
      ],
      [
        "यो",
        -9.814308166503906
      ],
      [
        "कट",
        -9.814313888549805
      ],
      [
        "▁सकारात्मक",
        -9.814831733703613
      ],
      [
        "▁घेतल्या",
        -9.815163612365723
      ],
      [
        "▁वापराचे",
        -9.815581321716309
      ],
      [
        "▁वी",
        -9.815651893615723
      ],
      [
        "▁दिशा",
        -9.815689086914062
      ],
      [
        "यात",
        -9.815855026245117
      ],
      [
        "▁ऐतिहासिक",
        -9.815858840942383
      ],
      [
        "▁बाद",
        -9.816564559936523
      ],
      [
        "डू",
        -9.816747665405273
      ],
      [
        "▁नवीनतम",
        -9.81692886352539
      ],
      [
        "घर",
        -9.817082405090332
      ],
      [
        "▁अमित",
        -9.817538261413574
      ],
      [
        "▁दारू",
        -9.817561149597168
      ],
      [
        "▁दिसणार",
        -9.817679405212402
      ],
      [
        "▁भोसले",
        -9.818050384521484
      ],
      [
        "▁धागा",
        -9.818594932556152
      ],
      [
        "▁संदर्भात",
        -9.818713188171387
      ],
      [
        "ुल",
        -9.820008277893066
      ],
      [
        "▁पहाटे",
        -9.820058822631836
      ],
      [
        "▁विठ्ठल",
        -9.820581436157227
      ],
      [
        "▁सोहळा",
        -9.821003913879395
      ],
      [
        "पूर्वी",
        -9.8212308883667
      ],
      [
        "z",
        -9.821520805358887
      ],
      [
        "▁प्रो",
        -9.822232246398926
      ],
      [
        "▁कान",
        -9.822654724121094
      ],
      [
        "▁English",
        -9.822694778442383
      ],
      [
        "धर्म",
        -9.823917388916016
      ],
      [
        "▁पाण्यात",
        -9.824087142944336
      ],
      [
        "ण्याच्या",
        -9.824111938476562
      ],
      [
        "▁कार्यक्रमात",
        -9.824230194091797
      ],
      [
        "▁सारखे",
        -9.824250221252441
      ],
      [
        "▁तेंव्हा",
        -9.824447631835938
      ],
      [
        "ir",
        -9.824463844299316
      ],
      [
        "▁त्यांच्यावर",
        -9.824488639831543
      ],
      [
        "▁अनेकदा",
        -9.824797630310059
      ],
      [
        "▁संध्याकाळी",
        -9.825591087341309
      ],
      [
        "index",
        -9.825628280639648
      ],
      [
        "▁फॉलो",
        -9.826496124267578
      ],
      [
        "▁क्ल",
        -9.827611923217773
      ],
      [
        "▁एच",
        -9.828564643859863
      ],
      [
        "करी",
        -9.828579902648926
      ],
      [
        "▁हुडकले",
        -9.828659057617188
      ],
      [
        "▁मीटर",
        -9.828886032104492
      ],
      [
        "लाय",
        -9.828897476196289
      ],
      [
        "ें",
        -9.829031944274902
      ],
      [
        "▁उत्पादक",
        -9.829716682434082
      ],
      [
        "▁कल",
        -9.830804824829102
      ],
      [
        "▁राहिला",
        -9.831068992614746
      ],
      [
        "▁गाठ",
        -9.831276893615723
      ],
      [
        "▁विसर्जन",
        -9.831710815429688
      ],
      [
        "▁सवय",
        -9.831716537475586
      ],
      [
        "▁श्रीमंत",
        -9.831727981567383
      ],
      [
        "▁नावाने",
        -9.832858085632324
      ],
      [
        "क्क",
        -9.833296775817871
      ],
      [
        "ya",
        -9.833952903747559
      ],
      [
        "▁महान",
        -9.833992004394531
      ],
      [
        "▁सायंकाळी",
        -9.834672927856445
      ],
      [
        "▁नेम",
        -9.834834098815918
      ],
      [
        "▁विकसित",
        -9.835122108459473
      ],
      [
        "id",
        -9.835216522216797
      ],
      [
        "▁महेश",
        -9.835447311401367
      ],
      [
        "▁निवेदन",
        -9.835895538330078
      ],
      [
        "▁कार्यकारी",
        -9.83604621887207
      ],
      [
        "वावरा",
        -9.836380958557129
      ],
      [
        "▁परिसरातील",
        -9.837715148925781
      ],
      [
        "इन",
        -9.837761878967285
      ],
      [
        "▁साथ",
        -9.83804988861084
      ],
      [
        "तोय",
        -9.83811092376709
      ],
      [
        "▁थंड",
        -9.838552474975586
      ],
      [
        "▁सावंत",
        -9.838642120361328
      ],
      [
        "▁राणे",
        -9.83864688873291
      ],
      [
        "▁मीडिया",
        -9.838937759399414
      ],
      [
        "▁हरकत",
        -9.839003562927246
      ],
      [
        "▁मायबोलीचे",
        -9.839245796203613
      ],
      [
        "▁उंच",
        -9.839495658874512
      ],
      [
        "▁कोणतेही",
        -9.83976936340332
      ],
      [
        "झा",
        -9.839794158935547
      ],
      [
        "र्त",
        -9.840248107910156
      ],
      [
        "▁नृत्य",
        -9.84027099609375
      ],
      [
        "el",
        -9.840529441833496
      ],
      [
        "ti",
        -9.841646194458008
      ],
      [
        "▁आयओएस",
        -9.842187881469727
      ],
      [
        "श्",
        -9.842788696289062
      ],
      [
        "▁बोर्ड",
        -9.84282112121582
      ],
      [
        "▁आत्म",
        -9.843316078186035
      ],
      [
        "▁तोड",
        -9.843950271606445
      ],
      [
        "▁पंच",
        -9.8442964553833
      ],
      [
        "▁असाल",
        -9.844488143920898
      ],
      [
        "▁विभागाने",
        -9.844659805297852
      ],
      [
        "▁करतील",
        -9.845759391784668
      ],
      [
        "▁निवडणुका",
        -9.8463773727417
      ],
      [
        "▁तक्रारी",
        -9.846423149108887
      ],
      [
        "▁Labels",
        -9.846902847290039
      ],
      [
        "▁भक्त",
        -9.846957206726074
      ],
      [
        "▁वेगळ्या",
        -9.847155570983887
      ],
      [
        "▁खरी",
        -9.84738826751709
      ],
      [
        "▁२९",
        -9.847441673278809
      ],
      [
        "▁धोका",
        -9.847674369812012
      ],
      [
        "▁अड",
        -9.84839153289795
      ],
      [
        "बल",
        -9.848506927490234
      ],
      [
        "▁अपडेट",
        -9.848823547363281
      ],
      [
        "▁चालक",
        -9.849020004272461
      ],
      [
        "▁पाहायला",
        -9.849050521850586
      ],
      [
        "▁सुभाष",
        -9.849567413330078
      ],
      [
        "देश",
        -9.84964656829834
      ],
      [
        "ढा",
        -9.850812911987305
      ],
      [
        "▁महापौर",
        -9.851499557495117
      ],
      [
        "▁अ‍ॅ",
        -9.851558685302734
      ],
      [
        "▁उभी",
        -9.851631164550781
      ],
      [
        "▁राख",
        -9.852564811706543
      ],
      [
        "▁सांगतात",
        -9.852994918823242
      ],
      [
        "▁प्राणी",
        -9.853598594665527
      ],
      [
        "१५",
        -9.853647232055664
      ],
      [
        "..!",
        -9.854022979736328
      ],
      [
        "ल्ला",
        -9.854104995727539
      ],
      [
        "▁भारताचे",
        -9.854154586791992
      ],
      [
        "▁कादंबरी",
        -9.854576110839844
      ],
      [
        "▁चोर",
        -9.854701042175293
      ],
      [
        "▁कांदा",
        -9.854757308959961
      ],
      [
        "▁यापूर्वी",
        -9.855002403259277
      ],
      [
        "▁आल्यावर",
        -9.855666160583496
      ],
      [
        "▁सगळी",
        -9.855688095092773
      ],
      [
        "▁गं",
        -9.855819702148438
      ],
      [
        "▁शास्त्र",
        -9.856496810913086
      ],
      [
        "क्र",
        -9.856600761413574
      ],
      [
        "▁स्वतःला",
        -9.857048034667969
      ],
      [
        "▁आठवड्यात",
        -9.857068061828613
      ],
      [
        "▁सुधार",
        -9.857110023498535
      ],
      [
        "▁जाता",
        -9.857300758361816
      ],
      [
        "अँड्रोईड",
        -9.857684135437012
      ],
      [
        "ंमुळे",
        -9.857854843139648
      ],
      [
        "▁मोज",
        -9.85798168182373
      ],
      [
        "ीस",
        -9.859435081481934
      ],
      [
        "▁नमस्कार",
        -9.860003471374512
      ],
      [
        "▁2.",
        -9.860034942626953
      ],
      [
        "▁जाणे",
        -9.86024284362793
      ],
      [
        "पूर्व",
        -9.860926628112793
      ],
      [
        "▁उद्देश",
        -9.861393928527832
      ],
      [
        "▁चिंचवड",
        -9.86147403717041
      ],
      [
        "▁संकेत",
        -9.862112998962402
      ],
      [
        "▁लातूर",
        -9.862320899963379
      ],
      [
        "▁मुलं",
        -9.862386703491211
      ],
      [
        "▁त्यानुसार",
        -9.86274528503418
      ],
      [
        "स्थान",
        -9.863259315490723
      ],
      [
        "▁जबाबदार",
        -9.863924026489258
      ],
      [
        "सिंह",
        -9.864137649536133
      ],
      [
        "ाद्वारे",
        -9.864374160766602
      ],
      [
        "पूर्ण",
        -9.865066528320312
      ],
      [
        "▁महाग",
        -9.865496635437012
      ],
      [
        "योग्य",
        -9.86569881439209
      ],
      [
        "??",
        -9.865736961364746
      ],
      [
        "▁दार",
        -9.865909576416016
      ],
      [
        "रस",
        -9.866232872009277
      ],
      [
        "▁भू",
        -9.866379737854004
      ],
      [
        "▁वै",
        -9.866865158081055
      ],
      [
        "▁रत्नागिरी",
        -9.867032051086426
      ],
      [
        "ांतून",
        -9.86789608001709
      ],
      [
        "▁बाप्पा",
        -9.86808967590332
      ],
      [
        "वला",
        -9.868136405944824
      ],
      [
        "ाखाली",
        -9.868496894836426
      ],
      [
        "▁मागण्या",
        -9.868863105773926
      ],
      [
        "▁वापरून",
        -9.86887264251709
      ],
      [
        "ाच",
        -9.869349479675293
      ],
      [
        "लिंग",
        -9.869449615478516
      ],
      [
        "्यावर",
        -9.869453430175781
      ],
      [
        "▁द्यावी",
        -9.869850158691406
      ],
      [
        "▁पुल",
        -9.870013236999512
      ],
      [
        "▁गड",
        -9.87022590637207
      ],
      [
        "▁टेबल",
        -9.871581077575684
      ],
      [
        "धी",
        -9.872519493103027
      ],
      [
        "▁शिकव",
        -9.872713088989258
      ],
      [
        "▁वळ",
        -9.872798919677734
      ],
      [
        "र्ट",
        -9.87319278717041
      ],
      [
        "१७",
        -9.873323440551758
      ],
      [
        "ma",
        -9.87384033203125
      ],
      [
        "काळ",
        -9.87433910369873
      ],
      [
        "▁रामदास",
        -9.876334190368652
      ],
      [
        "▁असूनही",
        -9.876374244689941
      ],
      [
        "▁नाहीतर",
        -9.876382827758789
      ],
      [
        "▁उद्योजक",
        -9.876856803894043
      ],
      [
        "▁वाचले",
        -9.87692642211914
      ],
      [
        "▁दुकान",
        -9.877647399902344
      ],
      [
        "▁मंत्र",
        -9.878217697143555
      ],
      [
        "▁तुलनेत",
        -9.879308700561523
      ],
      [
        "...!",
        -9.879321098327637
      ],
      [
        "▁मिळून",
        -9.879450798034668
      ],
      [
        "प्प",
        -9.87983226776123
      ],
      [
        "▁महिलांना",
        -9.881126403808594
      ],
      [
        "▁(2)",
        -9.881852149963379
      ],
      [
        "▁पार्क",
        -9.882378578186035
      ],
      [
        "la",
        -9.882621765136719
      ],
      [
        "▁आवडला",
        -9.883076667785645
      ],
      [
        "▁वारंवार",
        -9.88332462310791
      ],
      [
        "▁नऊ",
        -9.883347511291504
      ],
      [
        "▁भारताचा",
        -9.883471488952637
      ],
      [
        "▁तरुणी",
        -9.883755683898926
      ],
      [
        "▁अमेरिका",
        -9.88399887084961
      ],
      [
        "▁ऊस",
        -9.88422966003418
      ],
      [
        "ाविषयी",
        -9.884285926818848
      ],
      [
        "ul",
        -9.884650230407715
      ],
      [
        "▁सोड",
        -9.88553524017334
      ],
      [
        "▁प्रणाली",
        -9.885781288146973
      ],
      [
        "▁साधन",
        -9.885869026184082
      ],
      [
        "12",
        -9.886009216308594
      ],
      [
        "▁येणे",
        -9.886493682861328
      ],
      [
        "▁>",
        -9.886514663696289
      ],
      [
        "▁तुलना",
        -9.887052536010742
      ],
      [
        "▁०",
        -9.88709831237793
      ],
      [
        "▁याबद्दल",
        -9.887885093688965
      ],
      [
        "▁कष्ट",
        -9.88814640045166
      ],
      [
        "▁जयंती",
        -9.888256072998047
      ],
      [
        "▁निर्",
        -9.88839054107666
      ],
      [
        "▁सांगता",
        -9.888864517211914
      ],
      [
        "▁ब्राह्मण",
        -9.889115333557129
      ],
      [
        "▁मुदत",
        -9.889172554016113
      ],
      [
        "oldi",
        -9.89030933380127
      ],
      [
        "▁म्हणणे",
        -9.890461921691895
      ],
      [
        "▁नाना",
        -9.890510559082031
      ],
      [
        "▁मिनिट",
        -9.890530586242676
      ],
      [
        "ांपैकी",
        -9.89060115814209
      ],
      [
        "▁संकट",
        -9.890908241271973
      ],
      [
        "▁यंत्र",
        -9.890939712524414
      ],
      [
        "▁शेतकऱ्यांच्या",
        -9.891291618347168
      ],
      [
        "▁R",
        -9.891453742980957
      ],
      [
        "▁सेट",
        -9.891565322875977
      ],
      [
        "▁व्यायाम",
        -9.891770362854004
      ],
      [
        "▁प्रार्थना",
        -9.891773223876953
      ],
      [
        "▁प्राण",
        -9.891838073730469
      ],
      [
        "▁वाचायला",
        -9.892264366149902
      ],
      [
        "▁भेटी",
        -9.892343521118164
      ],
      [
        "▁आपल्याकडे",
        -9.8925199508667
      ],
      [
        "▁सांगू",
        -9.892630577087402
      ],
      [
        "ीला",
        -9.89285945892334
      ],
      [
        "▁कौशल्य",
        -9.893362045288086
      ],
      [
        "st",
        -9.893555641174316
      ],
      [
        "मर",
        -9.894064903259277
      ],
      [
        "▁पोच",
        -9.894118309020996
      ],
      [
        "न्ड",
        -9.894708633422852
      ],
      [
        "म्म",
        -9.895882606506348
      ],
      [
        "▁गणित",
        -9.896171569824219
      ],
      [
        "▁नागरिकांना",
        -9.896258354187012
      ],
      [
        "▁राबव",
        -9.896644592285156
      ],
      [
        "म्ब",
        -9.89671516418457
      ],
      [
        "श्या",
        -9.897143363952637
      ],
      [
        "ृ",
        -9.897210121154785
      ],
      [
        "वट",
        -9.898269653320312
      ],
      [
        "पुढे",
        -9.898649215698242
      ],
      [
        "था",
        -9.898768424987793
      ],
      [
        "▁वाच",
        -9.899625778198242
      ],
      [
        "▁दखल",
        -9.899750709533691
      ],
      [
        "▁रुपयांची",
        -9.899890899658203
      ],
      [
        "▁फेरी",
        -9.900345802307129
      ],
      [
        "▁लॉ",
        -9.900397300720215
      ],
      [
        "▁तसंच",
        -9.900400161743164
      ],
      [
        "▁गाड्या",
        -9.900471687316895
      ],
      [
        "▁कपूर",
        -9.901104927062988
      ],
      [
        "▁समर्थ",
        -9.901392936706543
      ],
      [
        "▁डो",
        -9.901632308959961
      ],
      [
        "▁परिषदेत",
        -9.901914596557617
      ],
      [
        "▁तुकाराम",
        -9.90255355834961
      ],
      [
        "▁विद्या",
        -9.903292655944824
      ],
      [
        "▁चित्रपटात",
        -9.90335750579834
      ],
      [
        "वरुन",
        -9.903850555419922
      ],
      [
        "टक",
        -9.903863906860352
      ],
      [
        "▁अंश",
        -9.90429401397705
      ],
      [
        "▁हॅ",
        -9.9044828414917
      ],
      [
        "▁वास",
        -9.904708862304688
      ],
      [
        "ॅट",
        -9.9048433303833
      ],
      [
        "▁गायकवाड",
        -9.905101776123047
      ],
      [
        "▁वर्षांच्या",
        -9.905261039733887
      ],
      [
        "▁सर्वत्र",
        -9.905261993408203
      ],
      [
        "▁कोणती",
        -9.905547142028809
      ],
      [
        "▁पळ",
        -9.905962944030762
      ],
      [
        "▁नाट्य",
        -9.906054496765137
      ],
      [
        "▁भारी",
        -9.906729698181152
      ],
      [
        "ak",
        -9.907730102539062
      ],
      [
        "▁कालावधी",
        -9.907858848571777
      ],
      [
        "▁कै",
        -9.907915115356445
      ],
      [
        "सिंग",
        -9.908075332641602
      ],
      [
        "▁भाजपचे",
        -9.908745765686035
      ],
      [
        "▁घेतो",
        -9.90888500213623
      ],
      [
        "▁लक्ष्य",
        -9.908919334411621
      ],
      [
        "▁२०१०",
        -9.909164428710938
      ],
      [
        "अप",
        -9.909540176391602
      ],
      [
        "एफ",
        -9.910574913024902
      ],
      [
        "▁लावले",
        -9.910920143127441
      ],
      [
        "वेल",
        -9.911396980285645
      ],
      [
        "▁सुट्टी",
        -9.911835670471191
      ],
      [
        "▁भाजी",
        -9.912473678588867
      ],
      [
        "▁दिसतात",
        -9.91247844696045
      ],
      [
        "▁अतिरिक्त",
        -9.91277027130127
      ],
      [
        "▁कशाला",
        -9.912904739379883
      ],
      [
        "▁सुनील",
        -9.913119316101074
      ],
      [
        "▁नाय",
        -9.913362503051758
      ],
      [
        "▁वरून",
        -9.913592338562012
      ],
      [
        "mumbai",
        -9.913702964782715
      ],
      [
        "झी",
        -9.913705825805664
      ],
      [
        "▁पवित्र",
        -9.914531707763672
      ],
      [
        "▁ट्रेन",
        -9.914623260498047
      ],
      [
        "गल",
        -9.914629936218262
      ],
      [
        "िट",
        -9.915704727172852
      ],
      [
        "▁निवडणुकी",
        -9.91571044921875
      ],
      [
        "▁आजी",
        -9.915827751159668
      ],
      [
        "▁काढला",
        -9.915874481201172
      ],
      [
        "▁झाल्याचे",
        -9.916022300720215
      ],
      [
        "▁गुगल",
        -9.916299819946289
      ],
      [
        "▁मेल",
        -9.91723346710205
      ],
      [
        "11",
        -9.917675971984863
      ],
      [
        "▁त्यामध्ये",
        -9.91797924041748
      ],
      [
        "▁देशाच्या",
        -9.91832447052002
      ],
      [
        "▁सैन्य",
        -9.918414115905762
      ],
      [
        "▁एकमेव",
        -9.918442726135254
      ],
      [
        "▁आत्ता",
        -9.918475151062012
      ],
      [
        "▁त्रि",
        -9.918732643127441
      ],
      [
        "▁मिळू",
        -9.91897201538086
      ],
      [
        "▁फूट",
        -9.919917106628418
      ],
      [
        "▁इं",
        -9.920080184936523
      ],
      [
        "▁महामंडळ",
        -9.92026138305664
      ],
      [
        "पदी",
        -9.920417785644531
      ],
      [
        "▁कोणते",
        -9.920482635498047
      ],
      [
        "▁आणून",
        -9.920493125915527
      ],
      [
        "द्र",
        -9.920823097229004
      ],
      [
        "आता",
        -9.921066284179688
      ],
      [
        "▁भ्रष्टाचार",
        -9.921435356140137
      ],
      [
        "▁रुग्णालय",
        -9.921442985534668
      ],
      [
        "▁मृत",
        -9.922527313232422
      ],
      [
        "▁नितीन",
        -9.92253303527832
      ],
      [
        "▁मार्गदर्शक",
        -9.922599792480469
      ],
      [
        "▁आढावा",
        -9.922738075256348
      ],
      [
        "▁देणारे",
        -9.923606872558594
      ],
      [
        "▁and",
        -9.923853874206543
      ],
      [
        "▁चोरी",
        -9.923995018005371
      ],
      [
        "▁पगार",
        -9.924874305725098
      ],
      [
        "▁पाठिंबा",
        -9.925081253051758
      ],
      [
        "▁एकही",
        -9.925140380859375
      ],
      [
        "▁पिढी",
        -9.925418853759766
      ],
      [
        "▁कर्म",
        -9.925960540771484
      ],
      [
        "▁दोष",
        -9.925986289978027
      ],
      [
        "▁उदा",
        -9.926640510559082
      ],
      [
        "कृत",
        -9.926643371582031
      ],
      [
        "!!!",
        -9.926783561706543
      ],
      [
        "▁जागी",
        -9.927149772644043
      ],
      [
        "▁प्रत्यक्षात",
        -9.927637100219727
      ],
      [
        "▁पथक",
        -9.927797317504883
      ],
      [
        "▁साय",
        -9.92805290222168
      ],
      [
        "▁सविस्तर",
        -9.92959213256836
      ],
      [
        "थी",
        -9.929697036743164
      ],
      [
        "लय",
        -9.930935859680176
      ],
      [
        "▁करायचं",
        -9.931699752807617
      ],
      [
        "ro",
        -9.932024955749512
      ],
      [
        "ंडी",
        -9.932817459106445
      ],
      [
        "and",
        -9.933441162109375
      ],
      [
        "▁येथून",
        -9.93366527557373
      ],
      [
        "▁मूल्य",
        -9.934088706970215
      ],
      [
        "▁प्रदर्शित",
        -9.934661865234375
      ],
      [
        "▁जिथे",
        -9.934793472290039
      ],
      [
        "▁न्यू",
        -9.934823036193848
      ],
      [
        "▁तंत्र",
        -9.935142517089844
      ],
      [
        "▁गेलं",
        -9.935857772827148
      ],
      [
        "▁दाखवून",
        -9.936331748962402
      ],
      [
        "िके",
        -9.936851501464844
      ],
      [
        "▁परंपरा",
        -9.937570571899414
      ],
      [
        "▁मुळे",
        -9.937682151794434
      ],
      [
        "▁खून",
        -9.937691688537598
      ],
      [
        "▁आवडते",
        -9.937897682189941
      ],
      [
        "▁वार",
        -9.93854808807373
      ],
      [
        "▁मोबाइल",
        -9.939712524414062
      ],
      [
        "▁यादव",
        -9.940096855163574
      ],
      [
        "▁शंभर",
        -9.940251350402832
      ],
      [
        "▁नोट",
        -9.940905570983887
      ],
      [
        "▁नाग",
        -9.941171646118164
      ],
      [
        "ig",
        -9.941556930541992
      ],
      [
        "र्न",
        -9.941823959350586
      ],
      [
        "▁खाजगी",
        -9.941892623901367
      ],
      [
        "▁सक्षम",
        -9.942160606384277
      ],
      [
        "▁अमेरिकेत",
        -9.942205429077148
      ],
      [
        "▁किलोमीटर",
        -9.942340850830078
      ],
      [
        "ात्मक",
        -9.942436218261719
      ],
      [
        "▁गीत",
        -9.942455291748047
      ],
      [
        "▁राहत",
        -9.942750930786133
      ],
      [
        "▁नसल्याचे",
        -9.942770004272461
      ],
      [
        "▁बाग",
        -9.942789077758789
      ],
      [
        "▁सॉफ्टवेअर",
        -9.942939758300781
      ],
      [
        "त्री",
        -9.944156646728516
      ],
      [
        "▁समाजाला",
        -9.944307327270508
      ],
      [
        "विले",
        -9.944334983825684
      ],
      [
        "▁विमा",
        -9.944418907165527
      ],
      [
        "▁नियमित",
        -9.945500373840332
      ],
      [
        "▁पोहच",
        -9.945755004882812
      ],
      [
        "▁वापरले",
        -9.945969581604004
      ],
      [
        "▁पक्षाचे",
        -9.946189880371094
      ],
      [
        "िता",
        -9.94624137878418
      ],
      [
        "50",
        -9.946269035339355
      ],
      [
        "िर",
        -9.94637393951416
      ],
      [
        "▁मह",
        -9.94720458984375
      ],
      [
        "▁शुभ",
        -9.947787284851074
      ],
      [
        "▁मेट्रो",
        -9.948079109191895
      ],
      [
        "▁सगळ्यात",
        -9.94863224029541
      ],
      [
        "▁अरुण",
        -9.948871612548828
      ],
      [
        "▁आख",
        -9.948922157287598
      ],
      [
        "▁संग्रह",
        -9.949377059936523
      ],
      [
        "ोर",
        -9.949746131896973
      ],
      [
        "▁यांच्यासह",
        -9.950142860412598
      ],
      [
        "▁वेद",
        -9.950201988220215
      ],
      [
        "▁धक्कादायक",
        -9.950372695922852
      ],
      [
        "बु",
        -9.950475692749023
      ],
      [
        "ज्ञ",
        -9.950515747070312
      ],
      [
        "▁यातून",
        -9.950610160827637
      ],
      [
        "▁बऱ्याच",
        -9.950691223144531
      ],
      [
        "▁टाळ",
        -9.951128005981445
      ],
      [
        "▁पैकी",
        -9.951177597045898
      ],
      [
        "▁कोर",
        -9.952184677124023
      ],
      [
        "▁व्यापार",
        -9.95228385925293
      ],
      [
        "▁अजिबात",
        -9.952377319335938
      ],
      [
        "▁कित्येक",
        -9.952534675598145
      ],
      [
        "▁the",
        -9.95339584350586
      ],
      [
        "▁ठेवणे",
        -9.953725814819336
      ],
      [
        "▁वर्षाच्या",
        -9.954487800598145
      ],
      [
        "करिता",
        -9.95456600189209
      ],
      [
        "▁कृष्ण",
        -9.954612731933594
      ],
      [
        "▁ठीक",
        -9.954975128173828
      ],
      [
        "▁मुंबईतील",
        -9.956077575683594
      ],
      [
        "▁वैशिष्ट्य",
        -9.956296920776367
      ],
      [
        "ल्",
        -9.956461906433105
      ],
      [
        "▁गृह",
        -9.956531524658203
      ],
      [
        "▁घेणारे",
        -9.957108497619629
      ],
      [
        "्न",
        -9.957197189331055
      ],
      [
        "▁लागवड",
        -9.957256317138672
      ],
      [
        "▁40",
        -9.957423210144043
      ],
      [
        "▁अवलंबून",
        -9.957467079162598
      ],
      [
        "▁मिनिटे",
        -9.95776653289795
      ],
      [
        "▁अन्यथा",
        -9.957962036132812
      ],
      [
        "ट्स",
        -9.958076477050781
      ],
      [
        "▁श्रेणी",
        -9.958296775817871
      ],
      [
        "▁प्रेक्षक",
        -9.95853042602539
      ],
      [
        "▁मिळतो",
        -9.958545684814453
      ],
      [
        "▁3.",
        -9.958783149719238
      ],
      [
        "▁पक्षी",
        -9.959020614624023
      ],
      [
        "▁भास",
        -9.95919418334961
      ],
      [
        "▁तेथील",
        -9.959309577941895
      ],
      [
        "▁फ़",
        -9.959787368774414
      ],
      [
        "यन",
        -9.959834098815918
      ],
      [
        "▁मुळात",
        -9.960051536560059
      ],
      [
        "▁टि",
        -9.960378646850586
      ],
      [
        "▁६०",
        -9.960466384887695
      ],
      [
        "▁गोळा",
        -9.960528373718262
      ],
      [
        "▁चलन",
        -9.961360931396484
      ],
      [
        "▁केरळ",
        -9.961382865905762
      ],
      [
        "र्ज",
        -9.961591720581055
      ],
      [
        "▁वृत्तपत्र",
        -9.961620330810547
      ],
      [
        "▁याने",
        -9.961658477783203
      ],
      [
        "▁समितीच्या",
        -9.961779594421387
      ],
[...]
